{
  "version": "1.0",
  "truncation": null,
  "padding": null,
  "added_tokens": [
    {
      "id": 0,
      "content": "[PAD]",
      "single_word": false,
      "lstrip": false,
      "rstrip": false,
      "normalized": false,
      "special": true
    },
    {
      "id": 1,
      "content": "[UNK]",
      "single_word": false,
      "lstrip": false,
      "rstrip": false,
      "normalized": false,
      "special": true
    },
    {
      "id": 2,
      "content": "[CLS]",
      "single_word": false,
      "lstrip": false,
      "rstrip": false,
      "normalized": false,
      "special": true
    },
    {
      "id": 3,
      "content": "[SEP]",
      "single_word": false,
      "lstrip": false,
      "rstrip": false,
      "normalized": false,
      "special": true
    },
    {
      "id": 4,
      "content": "[MASK]",
      "single_word": false,
      "lstrip": false,
      "rstrip": false,
      "normalized": false,
      "special": true
    }
  ],
  "normalizer": {
    "type": "BertNormalizer",
    "clean_text": true,
    "handle_chinese_chars": true,
    "strip_accents": null,
    "lowercase": false
  },
  "pre_tokenizer": {
    "type": "BertPreTokenizer"
  },
  "post_processor": {
    "type": "TemplateProcessing",
    "single": [
      {
        "SpecialToken": {
          "id": "[CLS]",
          "type_id": 0
        }
      },
      {
        "Sequence": {
          "id": "A",
          "type_id": 0
        }
      },
      {
        "SpecialToken": {
          "id": "[SEP]",
          "type_id": 0
        }
      }
    ],
    "pair": [
      {
        "SpecialToken": {
          "id": "[CLS]",
          "type_id": 0
        }
      },
      {
        "Sequence": {
          "id": "A",
          "type_id": 0
        }
      },
      {
        "SpecialToken": {
          "id": "[SEP]",
          "type_id": 0
        }
      },
      {
        "Sequence": {
          "id": "B",
          "type_id": 1
        }
      },
      {
        "SpecialToken": {
          "id": "[SEP]",
          "type_id": 1
        }
      }
    ],
    "special_tokens": {
      "[CLS]": {
        "id": "[CLS]",
        "ids": [
          2
        ],
        "tokens": [
          "[CLS]"
        ]
      },
      "[SEP]": {
        "id": "[SEP]",
        "ids": [
          3
        ],
        "tokens": [
          "[SEP]"
        ]
      }
    }
  },
  "decoder": {
    "type": "WordPiece",
    "prefix": "##",
    "cleanup": true
  },
  "model": {
    "type": "WordPiece",
    "unk_token": "[UNK]",
    "continuing_subword_prefix": "##",
    "max_input_chars_per_word": 100,
    "vocab": {
      "[PAD]": 0,
      "[UNK]": 1,
      "[CLS]": 2,
      "[SEP]": 3,
      "[MASK]": 4,
      "!": 5,
      "\"": 6,
      "#": 7,
      "$": 8,
      "%": 9,
      "&": 10,
      "'": 11,
      "(": 12,
      ")": 13,
      "*": 14,
      "+": 15,
      ",": 16,
      "-": 17,
      ".": 18,
      "/": 19,
      "0": 20,
      "1": 21,
      "2": 22,
      "3": 23,
      "4": 24,
      "5": 25,
      "6": 26,
      "7": 27,
      "8": 28,
      "9": 29,
      ":": 30,
      ";": 31,
      "<": 32,
      "=": 33,
      ">": 34,
      "?": 35,
      "@": 36,
      "A": 37,
      "B": 38,
      "C": 39,
      "D": 40,
      "E": 41,
      "F": 42,
      "G": 43,
      "H": 44,
      "I": 45,
      "J": 46,
      "K": 47,
      "L": 48,
      "M": 49,
      "N": 50,
      "O": 51,
      "P": 52,
      "Q": 53,
      "R": 54,
      "S": 55,
      "T": 56,
      "U": 57,
      "V": 58,
      "W": 59,
      "X": 60,
      "Y": 61,
      "Z": 62,
      "[": 63,
      "\\": 64,
      "]": 65,
      "^": 66,
      "_": 67,
      "`": 68,
      "a": 69,
      "b": 70,
      "c": 71,
      "d": 72,
      "e": 73,
      "f": 74,
      "g": 75,
      "h": 76,
      "i": 77,
      "j": 78,
      "k": 79,
      "l": 80,
      "m": 81,
      "n": 82,
      "o": 83,
      "p": 84,
      "q": 85,
      "r": 86,
      "s": 87,
      "t": 88,
      "u": 89,
      "v": 90,
      "w": 91,
      "x": 92,
      "y": 93,
      "z": 94,
      "{": 95,
      "|": 96,
      "}": 97,
      "~": 98,
      "§": 99,
      "«": 100,
      "®": 101,
      "°": 102,
      "±": 103,
      "²": 104,
      "³": 105,
      "´": 106,
      "·": 107,
      "¹": 108,
      "»": 109,
      "×": 110,
      "à": 111,
      "á": 112,
      "ä": 113,
      "ç": 114,
      "è": 115,
      "é": 116,
      "í": 117,
      "ó": 118,
      "ö": 119,
      "÷": 120,
      "ü": 121,
      "ā": 122,
      "ɪ": 123,
      "ɴ": 124,
      "ʔ": 125,
      "ʕ": 126,
      "ʟ": 127,
      "˂": 128,
      "˃": 129,
      "ː": 130,
      "˘": 131,
      "˙": 132,
      "˚": 133,
      "˝": 134,
      "̀": 135,
      "́": 136,
      "̄": 137,
      "̆": 138,
      "̈": 139,
      "̊": 140,
      "̎": 141,
      "̑": 142,
      "̣": 143,
      "̥": 144,
      "̩": 145,
      "̫": 146,
      "̴": 147,
      "̵": 148,
      "̶": 149,
      "̷": 150,
      "͈": 151,
      "͡": 152,
      "΄": 153,
      "Δ": 154,
      "α": 155,
      "β": 156,
      "ε": 157,
      "ι": 158,
      "λ": 159,
      "μ": 160,
      "ο": 161,
      "π": 162,
      "σ": 163,
      "ω": 164,
      "А": 165,
      "В": 166,
      "Д": 167,
      "И": 168,
      "К": 169,
      "М": 170,
      "П": 171,
      "Р": 172,
      "С": 173,
      "а": 174,
      "б": 175,
      "в": 176,
      "г": 177,
      "д": 178,
      "е": 179,
      "ж": 180,
      "з": 181,
      "и": 182,
      "й": 183,
      "к": 184,
      "л": 185,
      "м": 186,
      "н": 187,
      "о": 188,
      "п": 189,
      "р": 190,
      "с": 191,
      "т": 192,
      "у": 193,
      "ф": 194,
      "х": 195,
      "ц": 196,
      "ч": 197,
      "ш": 198,
      "щ": 199,
      "ы": 200,
      "ь": 201,
      "ю": 202,
      "я": 203,
      "ا": 204,
      "و": 205,
      "٩": 206,
      "ෆ": 207,
      "๑": 208,
      "ღ": 209,
      "ᄀ": 210,
      "ᄂ": 211,
      "ᄃ": 212,
      "ᄅ": 213,
      "ᄉ": 214,
      "ᄋ": 215,
      "ᄏ": 216,
      "ᄒ": 217,
      "ᅡ": 218,
      "ᅵ": 219,
      "ᆞ": 220,
      "ᆡ": 221,
      "ᆫ": 222,
      "ᆯ": 223,
      "ᴀ": 224,
      "ᴇ": 225,
      "ᴏ": 226,
      "ᴗ": 227,
      "ᴛ": 228,
      "ᴜ": 229,
      "ᴥ": 230,
      "ᴬ": 231,
      "ᴱ": 232,
      "ᴼ": 233,
      "ᵀ": 234,
      "–": 235,
      "—": 236,
      "―": 237,
      "‘": 238,
      "’": 239,
      "“": 240,
      "”": 241,
      "•": 242,
      "․": 243,
      "‥": 244,
      "…": 245,
      "‧": 246,
      "′": 247,
      "″": 248,
      "※": 249,
      "‼": 250,
      "⁉": 251,
      "⁴": 252,
      "₁": 253,
      "₂": 254,
      "₩": 255,
      "⃣": 256,
      "℃": 257,
      "ℓ": 258,
      "™": 259,
      "⅓": 260,
      "⅔": 261,
      "Ⅰ": 262,
      "Ⅱ": 263,
      "Ⅲ": 264,
      "Ⅳ": 265,
      "Ⅴ": 266,
      "Ⅵ": 267,
      "Ⅹ": 268,
      "ⅰ": 269,
      "ⅱ": 270,
      "←": 271,
      "↑": 272,
      "→": 273,
      "↓": 274,
      "↔": 275,
      "↘": 276,
      "↙": 277,
      "⇒": 278,
      "∑": 279,
      "∘": 280,
      "∙": 281,
      "∠": 282,
      "∥": 283,
      "∧": 284,
      "∼": 285,
      "≪": 286,
      "≫": 287,
      "⊙": 288,
      "⋅": 289,
      "①": 290,
      "②": 291,
      "③": 292,
      "④": 293,
      "⑤": 294,
      "⑥": 295,
      "⑦": 296,
      "⑧": 297,
      "⑨": 298,
      "⑩": 299,
      "⑪": 300,
      "⑫": 301,
      "⑬": 302,
      "⑭": 303,
      "⑴": 304,
      "⑵": 305,
      "⑶": 306,
      "⑷": 307,
      "⑸": 308,
      "⒜": 309,
      "⒝": 310,
      "⒞": 311,
      "ⓐ": 312,
      "ⓑ": 313,
      "ⓒ": 314,
      "ⓓ": 315,
      "─": 316,
      "━": 317,
      "│": 318,
      "┃": 319,
      "┬": 320,
      "■": 321,
      "□": 322,
      "▣": 323,
      "▨": 324,
      "▪": 325,
      "▫": 326,
      "▲": 327,
      "△": 328,
      "▶": 329,
      "▷": 330,
      "▼": 331,
      "▽": 332,
      "◀": 333,
      "◆": 334,
      "◇": 335,
      "◈": 336,
      "○": 337,
      "◎": 338,
      "●": 339,
      "◐": 340,
      "◞": 341,
      "◡": 342,
      "☀": 343,
      "☁": 344,
      "☄": 345,
      "★": 346,
      "☆": 347,
      "☎": 348,
      "☏": 349,
      "☑": 350,
      "☔": 351,
      "☕": 352,
      "☘": 353,
      "☝": 354,
      "☞": 355,
      "☠": 356,
      "☢": 357,
      "☹": 358,
      "☺": 359,
      "♀": 360,
      "♂": 361,
      "♠": 362,
      "♡": 363,
      "♣": 364,
      "♥": 365,
      "♦": 366,
      "♨": 367,
      "♩": 368,
      "♪": 369,
      "♬": 370,
      "⚠": 371,
      "⚡": 372,
      "⛔": 373,
      "✂": 374,
      "✅": 375,
      "✈": 376,
      "✊": 377,
      "✋": 378,
      "✌": 379,
      "✍": 380,
      "✔": 381,
      "✧": 382,
      "✨": 383,
      "✳": 384,
      "✿": 385,
      "❄": 386,
      "❌": 387,
      "❎": 388,
      "❓": 389,
      "❗": 390,
      "❛": 391,
      "❣": 392,
      "❤": 393,
      "❶": 394,
      "❷": 395,
      "❸": 396,
      "➊": 397,
      "➋": 398,
      "➖": 399,
      "➡": 400,
      "➰": 401,
      "⠀": 402,
      "⫬": 403,
      "⭐": 404,
      "⭕": 405,
      "、": 406,
      "。": 407,
      "〃": 408,
      "〈": 409,
      "〉": 410,
      "《": 411,
      "》": 412,
      "「": 413,
      "」": 414,
      "『": 415,
      "』": 416,
      "【": 417,
      "】": 418,
      "〓": 419,
      "〔": 420,
      "〕": 421,
      "〜": 422,
      "〰": 423,
      "あ": 424,
      "い": 425,
      "う": 426,
      "え": 427,
      "お": 428,
      "か": 429,
      "が": 430,
      "き": 431,
      "く": 432,
      "け": 433,
      "こ": 434,
      "さ": 435,
      "し": 436,
      "す": 437,
      "そ": 438,
      "た": 439,
      "だ": 440,
      "ち": 441,
      "っ": 442,
      "つ": 443,
      "て": 444,
      "で": 445,
      "と": 446,
      "な": 447,
      "に": 448,
      "ぬ": 449,
      "の": 450,
      "は": 451,
      "ま": 452,
      "み": 453,
      "め": 454,
      "も": 455,
      "ゃ": 456,
      "よ": 457,
      "ら": 458,
      "り": 459,
      "る": 460,
      "れ": 461,
      "わ": 462,
      "を": 463,
      "ん": 464,
      "ア": 465,
      "ィ": 466,
      "イ": 467,
      "ウ": 468,
      "ェ": 469,
      "カ": 470,
      "キ": 471,
      "ギ": 472,
      "ク": 473,
      "グ": 474,
      "ケ": 475,
      "コ": 476,
      "シ": 477,
      "ジ": 478,
      "ス": 479,
      "ソ": 480,
      "タ": 481,
      "ダ": 482,
      "チ": 483,
      "ッ": 484,
      "テ": 485,
      "ト": 486,
      "ド": 487,
      "ニ": 488,
      "ノ": 489,
      "バ": 490,
      "ヒ": 491,
      "フ": 492,
      "ブ": 493,
      "プ": 494,
      "ポ": 495,
      "マ": 496,
      "ミ": 497,
      "ム": 498,
      "メ": 499,
      "ラ": 500,
      "リ": 501,
      "ル": 502,
      "レ": 503,
      "ロ": 504,
      "ン": 505,
      "・": 506,
      "ー": 507,
      "ㄱ": 508,
      "ㄲ": 509,
      "ㄳ": 510,
      "ㄴ": 511,
      "ㄷ": 512,
      "ㄸ": 513,
      "ㄹ": 514,
      "ㄺ": 515,
      "ㅁ": 516,
      "ㅂ": 517,
      "ㅃ": 518,
      "ㅄ": 519,
      "ㅅ": 520,
      "ㅆ": 521,
      "ㅇ": 522,
      "ㅈ": 523,
      "ㅉ": 524,
      "ㅊ": 525,
      "ㅋ": 526,
      "ㅌ": 527,
      "ㅍ": 528,
      "ㅎ": 529,
      "ㅏ": 530,
      "ㅐ": 531,
      "ㅑ": 532,
      "ㅓ": 533,
      "ㅔ": 534,
      "ㅕ": 535,
      "ㅖ": 536,
      "ㅗ": 537,
      "ㅛ": 538,
      "ㅜ": 539,
      "ㅠ": 540,
      "ㅡ": 541,
      "ㅢ": 542,
      "ㅣ": 543,
      "ㅤ": 544,
      "ㆍ": 545,
      "㈎": 546,
      "㈏": 547,
      "㈐": 548,
      "㈑": 549,
      "㈔": 550,
      "㈜": 551,
      "㉠": 552,
      "㉡": 553,
      "㉢": 554,
      "㉣": 555,
      "㉤": 556,
      "㉮": 557,
      "㉯": 558,
      "㉰": 559,
      "㉱": 560,
      "㊗": 561,
      "㎉": 562,
      "㎍": 563,
      "㎎": 564,
      "㎏": 565,
      "㎐": 566,
      "㎒": 567,
      "㎓": 568,
      "㎖": 569,
      "㎗": 570,
      "㎘": 571,
      "㎚": 572,
      "㎛": 573,
      "㎜": 574,
      "㎝": 575,
      "㎞": 576,
      "㎠": 577,
      "㎡": 578,
      "㎢": 579,
      "㎥": 580,
      "㎸": 581,
      "㎾": 582,
      "㎿": 583,
      "㏄": 584,
      "㏈": 585,
      "㏊": 586,
      "一": 587,
      "丁": 588,
      "七": 589,
      "丈": 590,
      "三": 591,
      "上": 592,
      "下": 593,
      "不": 594,
      "丑": 595,
      "且": 596,
      "世": 597,
      "丘": 598,
      "丙": 599,
      "中": 600,
      "丹": 601,
      "主": 602,
      "乃": 603,
      "久": 604,
      "之": 605,
      "乎": 606,
      "乘": 607,
      "乙": 608,
      "九": 609,
      "也": 610,
      "乾": 611,
      "亂": 612,
      "了": 613,
      "予": 614,
      "事": 615,
      "二": 616,
      "于": 617,
      "云": 618,
      "互": 619,
      "五": 620,
      "井": 621,
      "亞": 622,
      "亡": 623,
      "交": 624,
      "亥": 625,
      "亦": 626,
      "亨": 627,
      "享": 628,
      "京": 629,
      "亭": 630,
      "人": 631,
      "仁": 632,
      "今": 633,
      "介": 634,
      "仕": 635,
      "他": 636,
      "付": 637,
      "仙": 638,
      "代": 639,
      "令": 640,
      "以": 641,
      "仰": 642,
      "仲": 643,
      "件": 644,
      "任": 645,
      "企": 646,
      "伊": 647,
      "伏": 648,
      "伐": 649,
      "休": 650,
      "伯": 651,
      "似": 652,
      "但": 653,
      "位": 654,
      "低": 655,
      "住": 656,
      "佐": 657,
      "何": 658,
      "余": 659,
      "佛": 660,
      "作": 661,
      "佳": 662,
      "使": 663,
      "來": 664,
      "例": 665,
      "侍": 666,
      "供": 667,
      "依": 668,
      "侯": 669,
      "侵": 670,
      "便": 671,
      "係": 672,
      "俊": 673,
      "俗": 674,
      "保": 675,
      "信": 676,
      "修": 677,
      "倂": 678,
      "倉": 679,
      "個": 680,
      "候": 681,
      "借": 682,
      "値": 683,
      "倫": 684,
      "倭": 685,
      "假": 686,
      "偏": 687,
      "停": 688,
      "健": 689,
      "側": 690,
      "偶": 691,
      "備": 692,
      "傭": 693,
      "傳": 694,
      "債": 695,
      "傷": 696,
      "傾": 697,
      "像": 698,
      "僕": 699,
      "僞": 700,
      "僧": 701,
      "價": 702,
      "儀": 703,
      "儒": 704,
      "償": 705,
      "優": 706,
      "允": 707,
      "元": 708,
      "兄": 709,
      "充": 710,
      "兆": 711,
      "先": 712,
      "光": 713,
      "克": 714,
      "免": 715,
      "兒": 716,
      "入": 717,
      "內": 718,
      "全": 719,
      "兩": 720,
      "兪": 721,
      "八": 722,
      "公": 723,
      "六": 724,
      "兮": 725,
      "共": 726,
      "兵": 727,
      "其": 728,
      "具": 729,
      "典": 730,
      "兼": 731,
      "冊": 732,
      "再": 733,
      "冠": 734,
      "冬": 735,
      "凡": 736,
      "凶": 737,
      "出": 738,
      "刀": 739,
      "分": 740,
      "切": 741,
      "刊": 742,
      "刑": 743,
      "列": 744,
      "初": 745,
      "判": 746,
      "別": 747,
      "利": 748,
      "到": 749,
      "制": 750,
      "券": 751,
      "刺": 752,
      "刻": 753,
      "則": 754,
      "剋": 755,
      "前": 756,
      "剛": 757,
      "副": 758,
      "割": 759,
      "創": 760,
      "劃": 761,
      "劇": 762,
      "劍": 763,
      "力": 764,
      "功": 765,
      "加": 766,
      "助": 767,
      "勇": 768,
      "動": 769,
      "務": 770,
      "勝": 771,
      "勞": 772,
      "勢": 773,
      "勤": 774,
      "勳": 775,
      "勸": 776,
      "勿": 777,
      "包": 778,
      "化": 779,
      "北": 780,
      "匠": 781,
      "區": 782,
      "十": 783,
      "千": 784,
      "午": 785,
      "半": 786,
      "卑": 787,
      "卒": 788,
      "協": 789,
      "南": 790,
      "博": 791,
      "占": 792,
      "卦": 793,
      "卯": 794,
      "印": 795,
      "危": 796,
      "却": 797,
      "卷": 798,
      "卽": 799,
      "卿": 800,
      "厚": 801,
      "原": 802,
      "去": 803,
      "參": 804,
      "又": 805,
      "及": 806,
      "友": 807,
      "反": 808,
      "叔": 809,
      "取": 810,
      "受": 811,
      "叛": 812,
      "叢": 813,
      "口": 814,
      "古": 815,
      "句": 816,
      "只": 817,
      "召": 818,
      "可": 819,
      "台": 820,
      "史": 821,
      "右": 822,
      "司": 823,
      "各": 824,
      "合": 825,
      "吉": 826,
      "同": 827,
      "名": 828,
      "后": 829,
      "吏": 830,
      "向": 831,
      "君": 832,
      "否": 833,
      "吳": 834,
      "吾": 835,
      "告": 836,
      "周": 837,
      "味": 838,
      "呼": 839,
      "命": 840,
      "和": 841,
      "咸": 842,
      "哀": 843,
      "品": 844,
      "哉": 845,
      "員": 846,
      "哭": 847,
      "哲": 848,
      "唐": 849,
      "唯": 850,
      "唱": 851,
      "商": 852,
      "問": 853,
      "啓": 854,
      "善": 855,
      "喜": 856,
      "喪": 857,
      "單": 858,
      "嘉": 859,
      "嘗": 860,
      "器": 861,
      "嚴": 862,
      "四": 863,
      "回": 864,
      "因": 865,
      "困": 866,
      "固": 867,
      "国": 868,
      "圈": 869,
      "國": 870,
      "圍": 871,
      "園": 872,
      "圓": 873,
      "圖": 874,
      "團": 875,
      "土": 876,
      "在": 877,
      "圭": 878,
      "地": 879,
      "均": 880,
      "坐": 881,
      "坤": 882,
      "型": 883,
      "城": 884,
      "域": 885,
      "執": 886,
      "基": 887,
      "堂": 888,
      "堅": 889,
      "堯": 890,
      "報": 891,
      "場": 892,
      "塔": 893,
      "境": 894,
      "墓": 895,
      "增": 896,
      "墨": 897,
      "壁": 898,
      "壇": 899,
      "壓": 900,
      "士": 901,
      "壬": 902,
      "壯": 903,
      "壽": 904,
      "夏": 905,
      "夕": 906,
      "外": 907,
      "多": 908,
      "夜": 909,
      "夢": 910,
      "大": 911,
      "天": 912,
      "太": 913,
      "夫": 914,
      "央": 915,
      "失": 916,
      "夷": 917,
      "奇": 918,
      "奉": 919,
      "奎": 920,
      "奏": 921,
      "契": 922,
      "奪": 923,
      "女": 924,
      "奴": 925,
      "好": 926,
      "如": 927,
      "妃": 928,
      "妄": 929,
      "妓": 930,
      "妙": 931,
      "妻": 932,
      "妾": 933,
      "始": 934,
      "姓": 935,
      "委": 936,
      "姜": 937,
      "姻": 938,
      "威": 939,
      "娘": 940,
      "婚": 941,
      "婢": 942,
      "婦": 943,
      "子": 944,
      "孔": 945,
      "字": 946,
      "存": 947,
      "孝": 948,
      "孟": 949,
      "季": 950,
      "孤": 951,
      "孫": 952,
      "學": 953,
      "宇": 954,
      "守": 955,
      "安": 956,
      "宋": 957,
      "完": 958,
      "宗": 959,
      "官": 960,
      "定": 961,
      "宜": 962,
      "客": 963,
      "宣": 964,
      "室": 965,
      "宮": 966,
      "宰": 967,
      "害": 968,
      "家": 969,
      "容": 970,
      "宿": 971,
      "寂": 972,
      "寄": 973,
      "寅": 974,
      "密": 975,
      "富": 976,
      "寒": 977,
      "察": 978,
      "寡": 979,
      "實": 980,
      "寧": 981,
      "審": 982,
      "寫": 983,
      "寬": 984,
      "寶": 985,
      "寺": 986,
      "封": 987,
      "射": 988,
      "將": 989,
      "專": 990,
      "尉": 991,
      "尊": 992,
      "尋": 993,
      "對": 994,
      "導": 995,
      "小": 996,
      "少": 997,
      "尙": 998,
      "尤": 999,
      "就": 1000,
      "尹": 1001,
      "尺": 1002,
      "尼": 1003,
      "尾": 1004,
      "局": 1005,
      "居": 1006,
      "屈": 1007,
      "屋": 1008,
      "展": 1009,
      "層": 1010,
      "履": 1011,
      "屬": 1012,
      "山": 1013,
      "岡": 1014,
      "岩": 1015,
      "岳": 1016,
      "岸": 1017,
      "峰": 1018,
      "島": 1019,
      "崇": 1020,
      "崎": 1021,
      "崔": 1022,
      "嶺": 1023,
      "巖": 1024,
      "川": 1025,
      "州": 1026,
      "巡": 1027,
      "工": 1028,
      "左": 1029,
      "巨": 1030,
      "巫": 1031,
      "差": 1032,
      "己": 1033,
      "已": 1034,
      "巳": 1035,
      "市": 1036,
      "布": 1037,
      "希": 1038,
      "帝": 1039,
      "師": 1040,
      "席": 1041,
      "帶": 1042,
      "常": 1043,
      "干": 1044,
      "平": 1045,
      "年": 1046,
      "幸": 1047,
      "幻": 1048,
      "幼": 1049,
      "幽": 1050,
      "幾": 1051,
      "序": 1052,
      "底": 1053,
      "店": 1054,
      "庚": 1055,
      "府": 1056,
      "度": 1057,
      "座": 1058,
      "庫": 1059,
      "庭": 1060,
      "庵": 1061,
      "庶": 1062,
      "康": 1063,
      "庸": 1064,
      "廟": 1065,
      "廢": 1066,
      "廣": 1067,
      "廳": 1068,
      "延": 1069,
      "廷": 1070,
      "建": 1071,
      "弊": 1072,
      "式": 1073,
      "弓": 1074,
      "引": 1075,
      "弗": 1076,
      "弘": 1077,
      "弟": 1078,
      "弱": 1079,
      "張": 1080,
      "强": 1081,
      "弼": 1082,
      "彈": 1083,
      "彌": 1084,
      "形": 1085,
      "彦": 1086,
      "影": 1087,
      "役": 1088,
      "彼": 1089,
      "往": 1090,
      "征": 1091,
      "待": 1092,
      "律": 1093,
      "後": 1094,
      "徐": 1095,
      "徒": 1096,
      "得": 1097,
      "從": 1098,
      "御": 1099,
      "復": 1100,
      "微": 1101,
      "徵": 1102,
      "德": 1103,
      "心": 1104,
      "必": 1105,
      "忌": 1106,
      "忍": 1107,
      "志": 1108,
      "忘": 1109,
      "忠": 1110,
      "念": 1111,
      "忽": 1112,
      "怒": 1113,
      "思": 1114,
      "急": 1115,
      "性": 1116,
      "怨": 1117,
      "怪": 1118,
      "恐": 1119,
      "恒": 1120,
      "恨": 1121,
      "恩": 1122,
      "恭": 1123,
      "息": 1124,
      "悅": 1125,
      "悟": 1126,
      "患": 1127,
      "悲": 1128,
      "情": 1129,
      "惟": 1130,
      "惠": 1131,
      "惡": 1132,
      "想": 1133,
      "意": 1134,
      "愚": 1135,
      "愛": 1136,
      "感": 1137,
      "愼": 1138,
      "慈": 1139,
      "態": 1140,
      "慕": 1141,
      "慣": 1142,
      "慧": 1143,
      "慮": 1144,
      "慶": 1145,
      "慾": 1146,
      "憂": 1147,
      "憲": 1148,
      "應": 1149,
      "懲": 1150,
      "懷": 1151,
      "戊": 1152,
      "戌": 1153,
      "成": 1154,
      "我": 1155,
      "戒": 1156,
      "或": 1157,
      "戰": 1158,
      "戱": 1159,
      "戶": 1160,
      "房": 1161,
      "所": 1162,
      "手": 1163,
      "才": 1164,
      "扶": 1165,
      "批": 1166,
      "承": 1167,
      "技": 1168,
      "投": 1169,
      "抗": 1170,
      "折": 1171,
      "抵": 1172,
      "拒": 1173,
      "拘": 1174,
      "招": 1175,
      "拜": 1176,
      "括": 1177,
      "持": 1178,
      "指": 1179,
      "振": 1180,
      "捕": 1181,
      "授": 1182,
      "掌": 1183,
      "排": 1184,
      "接": 1185,
      "推": 1186,
      "措": 1187,
      "提": 1188,
      "揚": 1189,
      "換": 1190,
      "揭": 1191,
      "援": 1192,
      "損": 1193,
      "撰": 1194,
      "擇": 1195,
      "擊": 1196,
      "操": 1197,
      "擔": 1198,
      "據": 1199,
      "擧": 1200,
      "擬": 1201,
      "支": 1202,
      "收": 1203,
      "改": 1204,
      "攻": 1205,
      "放": 1206,
      "政": 1207,
      "故": 1208,
      "效": 1209,
      "敍": 1210,
      "敎": 1211,
      "敏": 1212,
      "救": 1213,
      "敗": 1214,
      "敢": 1215,
      "散": 1216,
      "敦": 1217,
      "敬": 1218,
      "整": 1219,
      "敵": 1220,
      "數": 1221,
      "文": 1222,
      "斗": 1223,
      "料": 1224,
      "斥": 1225,
      "斯": 1226,
      "新": 1227,
      "斷": 1228,
      "方": 1229,
      "於": 1230,
      "施": 1231,
      "旅": 1232,
      "族": 1233,
      "旗": 1234,
      "旣": 1235,
      "日": 1236,
      "旨": 1237,
      "早": 1238,
      "昇": 1239,
      "昌": 1240,
      "明": 1241,
      "易": 1242,
      "昔": 1243,
      "星": 1244,
      "映": 1245,
      "春": 1246,
      "昭": 1247,
      "是": 1248,
      "時": 1249,
      "晉": 1250,
      "晋": 1251,
      "晩": 1252,
      "普": 1253,
      "景": 1254,
      "智": 1255,
      "暗": 1256,
      "暴": 1257,
      "曆": 1258,
      "曉": 1259,
      "曰": 1260,
      "曲": 1261,
      "更": 1262,
      "書": 1263,
      "曹": 1264,
      "曾": 1265,
      "最": 1266,
      "會": 1267,
      "月": 1268,
      "有": 1269,
      "服": 1270,
      "朔": 1271,
      "望": 1272,
      "朝": 1273,
      "期": 1274,
      "木": 1275,
      "未": 1276,
      "末": 1277,
      "本": 1278,
      "朱": 1279,
      "朴": 1280,
      "李": 1281,
      "材": 1282,
      "村": 1283,
      "杖": 1284,
      "杜": 1285,
      "束": 1286,
      "東": 1287,
      "松": 1288,
      "板": 1289,
      "林": 1290,
      "果": 1291,
      "枝": 1292,
      "某": 1293,
      "柱": 1294,
      "柳": 1295,
      "査": 1296,
      "校": 1297,
      "株": 1298,
      "核": 1299,
      "根": 1300,
      "格": 1301,
      "桂": 1302,
      "桃": 1303,
      "案": 1304,
      "桓": 1305,
      "梁": 1306,
      "梅": 1307,
      "條": 1308,
      "棄": 1309,
      "植": 1310,
      "楊": 1311,
      "楚": 1312,
      "業": 1313,
      "極": 1314,
      "榮": 1315,
      "構": 1316,
      "槪": 1317,
      "樂": 1318,
      "樓": 1319,
      "標": 1320,
      "模": 1321,
      "樣": 1322,
      "樹": 1323,
      "橋": 1324,
      "機": 1325,
      "橫": 1326,
      "檀": 1327,
      "檢": 1328,
      "權": 1329,
      "次": 1330,
      "欲": 1331,
      "欺": 1332,
      "款": 1333,
      "歌": 1334,
      "歐": 1335,
      "止": 1336,
      "正": 1337,
      "此": 1338,
      "步": 1339,
      "武": 1340,
      "歲": 1341,
      "歷": 1342,
      "歸": 1343,
      "死": 1344,
      "殊": 1345,
      "殘": 1346,
      "段": 1347,
      "殷": 1348,
      "殺": 1349,
      "殿": 1350,
      "母": 1351,
      "每": 1352,
      "毒": 1353,
      "比": 1354,
      "毛": 1355,
      "氏": 1356,
      "民": 1357,
      "氣": 1358,
      "水": 1359,
      "永": 1360,
      "求": 1361,
      "汝": 1362,
      "江": 1363,
      "池": 1364,
      "決": 1365,
      "沈": 1366,
      "沒": 1367,
      "沙": 1368,
      "河": 1369,
      "油": 1370,
      "治": 1371,
      "況": 1372,
      "泉": 1373,
      "法": 1374,
      "波": 1375,
      "注": 1376,
      "泰": 1377,
      "洋": 1378,
      "洙": 1379,
      "洞": 1380,
      "津": 1381,
      "洪": 1382,
      "洲": 1383,
      "活": 1384,
      "派": 1385,
      "流": 1386,
      "浦": 1387,
      "浩": 1388,
      "浮": 1389,
      "海": 1390,
      "消": 1391,
      "涉": 1392,
      "淑": 1393,
      "淨": 1394,
      "淫": 1395,
      "深": 1396,
      "淳": 1397,
      "淵": 1398,
      "混": 1399,
      "淸": 1400,
      "減": 1401,
      "渡": 1402,
      "港": 1403,
      "渾": 1404,
      "湖": 1405,
      "湯": 1406,
      "源": 1407,
      "準": 1408,
      "溪": 1409,
      "溫": 1410,
      "滅": 1411,
      "滯": 1412,
      "滿": 1413,
      "演": 1414,
      "漢": 1415,
      "漸": 1416,
      "潤": 1417,
      "潮": 1418,
      "澤": 1419,
      "濟": 1420,
      "灣": 1421,
      "火": 1422,
      "災": 1423,
      "炳": 1424,
      "烈": 1425,
      "烏": 1426,
      "焉": 1427,
      "無": 1428,
      "然": 1429,
      "煥": 1430,
      "照": 1431,
      "熙": 1432,
      "熟": 1433,
      "熱": 1434,
      "燈": 1435,
      "燕": 1436,
      "營": 1437,
      "爭": 1438,
      "爲": 1439,
      "父": 1440,
      "爾": 1441,
      "片": 1442,
      "版": 1443,
      "牛": 1444,
      "牧": 1445,
      "物": 1446,
      "特": 1447,
      "犬": 1448,
      "犯": 1449,
      "狀": 1450,
      "狂": 1451,
      "猶": 1452,
      "獄": 1453,
      "獨": 1454,
      "獸": 1455,
      "獻": 1456,
      "玄": 1457,
      "率": 1458,
      "玉": 1459,
      "王": 1460,
      "珍": 1461,
      "珠": 1462,
      "班": 1463,
      "現": 1464,
      "球": 1465,
      "理": 1466,
      "琴": 1467,
      "瑕": 1468,
      "瑞": 1469,
      "環": 1470,
      "甘": 1471,
      "甚": 1472,
      "生": 1473,
      "産": 1474,
      "用": 1475,
      "甫": 1476,
      "田": 1477,
      "由": 1478,
      "甲": 1479,
      "申": 1480,
      "男": 1481,
      "町": 1482,
      "界": 1483,
      "畏": 1484,
      "留": 1485,
      "略": 1486,
      "異": 1487,
      "畵": 1488,
      "當": 1489,
      "疏": 1490,
      "疑": 1491,
      "疵": 1492,
      "疾": 1493,
      "病": 1494,
      "痛": 1495,
      "癸": 1496,
      "登": 1497,
      "發": 1498,
      "白": 1499,
      "百": 1500,
      "的": 1501,
      "皆": 1502,
      "皇": 1503,
      "皮": 1504,
      "益": 1505,
      "盛": 1506,
      "盜": 1507,
      "盟": 1508,
      "盡": 1509,
      "監": 1510,
      "盤": 1511,
      "目": 1512,
      "直": 1513,
      "相": 1514,
      "省": 1515,
      "看": 1516,
      "眞": 1517,
      "眼": 1518,
      "着": 1519,
      "督": 1520,
      "矣": 1521,
      "知": 1522,
      "短": 1523,
      "石": 1524,
      "破": 1525,
      "硏": 1526,
      "碑": 1527,
      "確": 1528,
      "示": 1529,
      "社": 1530,
      "祀": 1531,
      "祖": 1532,
      "祝": 1533,
      "神": 1534,
      "祠": 1535,
      "祥": 1536,
      "票": 1537,
      "祭": 1538,
      "祿": 1539,
      "禁": 1540,
      "禍": 1541,
      "福": 1542,
      "禪": 1543,
      "禮": 1544,
      "禹": 1545,
      "秀": 1546,
      "私": 1547,
      "秉": 1548,
      "秋": 1549,
      "科": 1550,
      "秘": 1551,
      "租": 1552,
      "秦": 1553,
      "秩": 1554,
      "移": 1555,
      "稅": 1556,
      "程": 1557,
      "種": 1558,
      "稱": 1559,
      "稷": 1560,
      "稿": 1561,
      "穀": 1562,
      "穆": 1563,
      "積": 1564,
      "究": 1565,
      "空": 1566,
      "窮": 1567,
      "立": 1568,
      "章": 1569,
      "童": 1570,
      "端": 1571,
      "競": 1572,
      "竹": 1573,
      "笑": 1574,
      "符": 1575,
      "第": 1576,
      "筆": 1577,
      "等": 1578,
      "答": 1579,
      "策": 1580,
      "箕": 1581,
      "算": 1582,
      "管": 1583,
      "節": 1584,
      "範": 1585,
      "篇": 1586,
      "簡": 1587,
      "簿": 1588,
      "籍": 1589,
      "米": 1590,
      "精": 1591,
      "系": 1592,
      "紀": 1593,
      "約": 1594,
      "紅": 1595,
      "納": 1596,
      "純": 1597,
      "紙": 1598,
      "級": 1599,
      "素": 1600,
      "索": 1601,
      "紫": 1602,
      "細": 1603,
      "終": 1604,
      "組": 1605,
      "結": 1606,
      "給": 1607,
      "統": 1608,
      "絶": 1609,
      "經": 1610,
      "維": 1611,
      "綱": 1612,
      "緊": 1613,
      "線": 1614,
      "緣": 1615,
      "編": 1616,
      "縣": 1617,
      "總": 1618,
      "織": 1619,
      "繼": 1620,
      "續": 1621,
      "缺": 1622,
      "罪": 1623,
      "置": 1624,
      "罰": 1625,
      "署": 1626,
      "羅": 1627,
      "羊": 1628,
      "美": 1629,
      "群": 1630,
      "義": 1631,
      "羽": 1632,
      "翁": 1633,
      "習": 1634,
      "翰": 1635,
      "翼": 1636,
      "老": 1637,
      "考": 1638,
      "者": 1639,
      "而": 1640,
      "耕": 1641,
      "耳": 1642,
      "耶": 1643,
      "聖": 1644,
      "聞": 1645,
      "聯": 1646,
      "聲": 1647,
      "職": 1648,
      "聽": 1649,
      "肅": 1650,
      "肉": 1651,
      "肯": 1652,
      "育": 1653,
      "背": 1654,
      "胎": 1655,
      "胡": 1656,
      "能": 1657,
      "脈": 1658,
      "脫": 1659,
      "臣": 1660,
      "臨": 1661,
      "自": 1662,
      "至": 1663,
      "致": 1664,
      "臺": 1665,
      "與": 1666,
      "興": 1667,
      "舊": 1668,
      "舍": 1669,
      "舜": 1670,
      "舞": 1671,
      "舟": 1672,
      "航": 1673,
      "般": 1674,
      "舶": 1675,
      "船": 1676,
      "良": 1677,
      "色": 1678,
      "花": 1679,
      "芳": 1680,
      "苑": 1681,
      "若": 1682,
      "苦": 1683,
      "英": 1684,
      "茂": 1685,
      "茶": 1686,
      "草": 1687,
      "荒": 1688,
      "荷": 1689,
      "莊": 1690,
      "莫": 1691,
      "華": 1692,
      "萬": 1693,
      "落": 1694,
      "葉": 1695,
      "著": 1696,
      "葛": 1697,
      "葬": 1698,
      "蒙": 1699,
      "蓋": 1700,
      "蔡": 1701,
      "薄": 1702,
      "藏": 1703,
      "藝": 1704,
      "藤": 1705,
      "藥": 1706,
      "藩": 1707,
      "蘇": 1708,
      "蘭": 1709,
      "虎": 1710,
      "處": 1711,
      "虛": 1712,
      "虞": 1713,
      "號": 1714,
      "融": 1715,
      "血": 1716,
      "衆": 1717,
      "行": 1718,
      "術": 1719,
      "街": 1720,
      "衛": 1721,
      "衡": 1722,
      "衣": 1723,
      "表": 1724,
      "衰": 1725,
      "被": 1726,
      "裁": 1727,
      "補": 1728,
      "裝": 1729,
      "製": 1730,
      "複": 1731,
      "襲": 1732,
      "西": 1733,
      "要": 1734,
      "見": 1735,
      "規": 1736,
      "視": 1737,
      "親": 1738,
      "覺": 1739,
      "覽": 1740,
      "觀": 1741,
      "角": 1742,
      "解": 1743,
      "言": 1744,
      "計": 1745,
      "討": 1746,
      "訓": 1747,
      "託": 1748,
      "記": 1749,
      "訟": 1750,
      "訥": 1751,
      "訪": 1752,
      "設": 1753,
      "許": 1754,
      "訴": 1755,
      "註": 1756,
      "詐": 1757,
      "評": 1758,
      "詞": 1759,
      "試": 1760,
      "詩": 1761,
      "話": 1762,
      "誌": 1763,
      "認": 1764,
      "語": 1765,
      "誠": 1766,
      "誤": 1767,
      "說": 1768,
      "誰": 1769,
      "課": 1770,
      "調": 1771,
      "談": 1772,
      "請": 1773,
      "論": 1774,
      "諫": 1775,
      "諸": 1776,
      "諾": 1777,
      "謀": 1778,
      "謂": 1779,
      "謙": 1780,
      "講": 1781,
      "謝": 1782,
      "謠": 1783,
      "證": 1784,
      "識": 1785,
      "譜": 1786,
      "警": 1787,
      "譯": 1788,
      "議": 1789,
      "護": 1790,
      "讀": 1791,
      "變": 1792,
      "讓": 1793,
      "谷": 1794,
      "豈": 1795,
      "豊": 1796,
      "象": 1797,
      "豪": 1798,
      "豫": 1799,
      "貞": 1800,
      "負": 1801,
      "財": 1802,
      "貢": 1803,
      "貧": 1804,
      "貨": 1805,
      "貫": 1806,
      "責": 1807,
      "貴": 1808,
      "買": 1809,
      "貸": 1810,
      "費": 1811,
      "貿": 1812,
      "賀": 1813,
      "賃": 1814,
      "資": 1815,
      "賊": 1816,
      "賓": 1817,
      "賜": 1818,
      "賞": 1819,
      "賠": 1820,
      "賢": 1821,
      "賣": 1822,
      "賤": 1823,
      "賦": 1824,
      "質": 1825,
      "賴": 1826,
      "贈": 1827,
      "贊": 1828,
      "赤": 1829,
      "走": 1830,
      "起": 1831,
      "超": 1832,
      "越": 1833,
      "趙": 1834,
      "足": 1835,
      "路": 1836,
      "身": 1837,
      "車": 1838,
      "軍": 1839,
      "軒": 1840,
      "較": 1841,
      "載": 1842,
      "輔": 1843,
      "輕": 1844,
      "輯": 1845,
      "輸": 1846,
      "輿": 1847,
      "轉": 1848,
      "辛": 1849,
      "辨": 1850,
      "辭": 1851,
      "辯": 1852,
      "辰": 1853,
      "農": 1854,
      "迅": 1855,
      "迎": 1856,
      "近": 1857,
      "返": 1858,
      "迫": 1859,
      "述": 1860,
      "追": 1861,
      "退": 1862,
      "送": 1863,
      "逆": 1864,
      "通": 1865,
      "造": 1866,
      "連": 1867,
      "進": 1868,
      "逸": 1869,
      "遂": 1870,
      "遇": 1871,
      "遊": 1872,
      "運": 1873,
      "過": 1874,
      "道": 1875,
      "達": 1876,
      "違": 1877,
      "遠": 1878,
      "遡": 1879,
      "遣": 1880,
      "適": 1881,
      "遲": 1882,
      "遷": 1883,
      "選": 1884,
      "遺": 1885,
      "避": 1886,
      "還": 1887,
      "邊": 1888,
      "邑": 1889,
      "那": 1890,
      "邦": 1891,
      "邪": 1892,
      "郞": 1893,
      "郡": 1894,
      "部": 1895,
      "郭": 1896,
      "都": 1897,
      "鄕": 1898,
      "鄭": 1899,
      "酉": 1900,
      "配": 1901,
      "酒": 1902,
      "醫": 1903,
      "釋": 1904,
      "里": 1905,
      "重": 1906,
      "野": 1907,
      "量": 1908,
      "金": 1909,
      "針": 1910,
      "銀": 1911,
      "銅": 1912,
      "銘": 1913,
      "錄": 1914,
      "錢": 1915,
      "錦": 1916,
      "錫": 1917,
      "錯": 1918,
      "鍾": 1919,
      "鎭": 1920,
      "鏡": 1921,
      "鐵": 1922,
      "鑑": 1923,
      "長": 1924,
      "門": 1925,
      "開": 1926,
      "閑": 1927,
      "間": 1928,
      "閔": 1929,
      "閣": 1930,
      "闕": 1931,
      "關": 1932,
      "防": 1933,
      "阿": 1934,
      "附": 1935,
      "降": 1936,
      "限": 1937,
      "院": 1938,
      "陣": 1939,
      "除": 1940,
      "陰": 1941,
      "陳": 1942,
      "陵": 1943,
      "陶": 1944,
      "陸": 1945,
      "陽": 1946,
      "隆": 1947,
      "隊": 1948,
      "階": 1949,
      "際": 1950,
      "障": 1951,
      "隨": 1952,
      "險": 1953,
      "隱": 1954,
      "雄": 1955,
      "雅": 1956,
      "集": 1957,
      "雖": 1958,
      "雙": 1959,
      "雜": 1960,
      "離": 1961,
      "難": 1962,
      "雨": 1963,
      "雪": 1964,
      "雲": 1965,
      "電": 1966,
      "震": 1967,
      "露": 1968,
      "靈": 1969,
      "靑": 1970,
      "靖": 1971,
      "靜": 1972,
      "非": 1973,
      "面": 1974,
      "革": 1975,
      "韓": 1976,
      "音": 1977,
      "韻": 1978,
      "項": 1979,
      "順": 1980,
      "須": 1981,
      "頌": 1982,
      "領": 1983,
      "頭": 1984,
      "題": 1985,
      "額": 1986,
      "顔": 1987,
      "願": 1988,
      "類": 1989,
      "顧": 1990,
      "顯": 1991,
      "風": 1992,
      "飛": 1993,
      "食": 1994,
      "飮": 1995,
      "養": 1996,
      "餘": 1997,
      "館": 1998,
      "首": 1999,
      "香": 2000,
      "馬": 2001,
      "駐": 2002,
      "騎": 2003,
      "驗": 2004,
      "驛": 2005,
      "骨": 2006,
      "體": 2007,
      "高": 2008,
      "髮": 2009,
      "鬪": 2010,
      "鬼": 2011,
      "魂": 2012,
      "魏": 2013,
      "魔": 2014,
      "魚": 2015,
      "鮮": 2016,
      "鳥": 2017,
      "鳳": 2018,
      "鳴": 2019,
      "鴻": 2020,
      "鶴": 2021,
      "鷄": 2022,
      "麗": 2023,
      "麻": 2024,
      "黃": 2025,
      "黑": 2026,
      "默": 2027,
      "點": 2028,
      "黨": 2029,
      "鼎": 2030,
      "鼓": 2031,
      "齊": 2032,
      "齋": 2033,
      "龍": 2034,
      "꙼": 2035,
      "가": 2036,
      "각": 2037,
      "갂": 2038,
      "간": 2039,
      "갇": 2040,
      "갈": 2041,
      "갉": 2042,
      "감": 2043,
      "갑": 2044,
      "값": 2045,
      "갓": 2046,
      "갔": 2047,
      "강": 2048,
      "갖": 2049,
      "갗": 2050,
      "갘": 2051,
      "같": 2052,
      "갚": 2053,
      "갛": 2054,
      "개": 2055,
      "객": 2056,
      "갠": 2057,
      "갤": 2058,
      "갬": 2059,
      "갭": 2060,
      "갯": 2061,
      "갰": 2062,
      "갱": 2063,
      "갲": 2064,
      "갸": 2065,
      "갹": 2066,
      "갼": 2067,
      "걀": 2068,
      "걍": 2069,
      "걑": 2070,
      "걔": 2071,
      "걘": 2072,
      "걩": 2073,
      "거": 2074,
      "걱": 2075,
      "건": 2076,
      "걷": 2077,
      "걸": 2078,
      "검": 2079,
      "겁": 2080,
      "것": 2081,
      "겄": 2082,
      "겅": 2083,
      "겆": 2084,
      "겈": 2085,
      "겉": 2086,
      "겊": 2087,
      "겋": 2088,
      "게": 2089,
      "겍": 2090,
      "겐": 2091,
      "겔": 2092,
      "겜": 2093,
      "겝": 2094,
      "겟": 2095,
      "겠": 2096,
      "겡": 2097,
      "겤": 2098,
      "겧": 2099,
      "겨": 2100,
      "격": 2101,
      "겪": 2102,
      "견": 2103,
      "결": 2104,
      "겸": 2105,
      "겹": 2106,
      "겻": 2107,
      "겼": 2108,
      "경": 2109,
      "곀": 2110,
      "곁": 2111,
      "계": 2112,
      "곈": 2113,
      "곗": 2114,
      "곘": 2115,
      "고": 2116,
      "곡": 2117,
      "곤": 2118,
      "곧": 2119,
      "골": 2120,
      "곪": 2121,
      "곬": 2122,
      "곯": 2123,
      "곰": 2124,
      "곱": 2125,
      "곳": 2126,
      "공": 2127,
      "곶": 2128,
      "곸": 2129,
      "과": 2130,
      "곽": 2131,
      "관": 2132,
      "괄": 2133,
      "괌": 2134,
      "광": 2135,
      "괘": 2136,
      "괜": 2137,
      "괞": 2138,
      "괭": 2139,
      "괴": 2140,
      "괵": 2141,
      "괸": 2142,
      "괼": 2143,
      "굉": 2144,
      "교": 2145,
      "굔": 2146,
      "굣": 2147,
      "굥": 2148,
      "구": 2149,
      "국": 2150,
      "군": 2151,
      "굳": 2152,
      "굴": 2153,
      "굵": 2154,
      "굶": 2155,
      "굻": 2156,
      "굼": 2157,
      "굽": 2158,
      "굿": 2159,
      "궁": 2160,
      "궂": 2161,
      "궃": 2162,
      "궄": 2163,
      "궈": 2164,
      "궉": 2165,
      "권": 2166,
      "궐": 2167,
      "궜": 2168,
      "궤": 2169,
      "궹": 2170,
      "귀": 2171,
      "귁": 2172,
      "귄": 2173,
      "귈": 2174,
      "귐": 2175,
      "귓": 2176,
      "규": 2177,
      "귝": 2178,
      "균": 2179,
      "귤": 2180,
      "그": 2181,
      "극": 2182,
      "근": 2183,
      "귿": 2184,
      "글": 2185,
      "긁": 2186,
      "금": 2187,
      "급": 2188,
      "긋": 2189,
      "긍": 2190,
      "긑": 2191,
      "긔": 2192,
      "긕": 2193,
      "기": 2194,
      "긱": 2195,
      "긴": 2196,
      "긷": 2197,
      "길": 2198,
      "긿": 2199,
      "김": 2200,
      "깁": 2201,
      "깃": 2202,
      "깄": 2203,
      "깅": 2204,
      "깆": 2205,
      "깈": 2206,
      "깉": 2207,
      "깊": 2208,
      "까": 2209,
      "깍": 2210,
      "깎": 2211,
      "깐": 2212,
      "깔": 2213,
      "깜": 2214,
      "깝": 2215,
      "깞": 2216,
      "깟": 2217,
      "깠": 2218,
      "깡": 2219,
      "깢": 2220,
      "깤": 2221,
      "깥": 2222,
      "깨": 2223,
      "깩": 2224,
      "깬": 2225,
      "깰": 2226,
      "깸": 2227,
      "깻": 2228,
      "깼": 2229,
      "깽": 2230,
      "꺄": 2231,
      "꺅": 2232,
      "꺠": 2233,
      "꺵": 2234,
      "꺼": 2235,
      "꺽": 2236,
      "꺾": 2237,
      "껀": 2238,
      "껄": 2239,
      "껌": 2240,
      "껍": 2241,
      "껏": 2242,
      "껐": 2243,
      "껑": 2244,
      "께": 2245,
      "껜": 2246,
      "껫": 2247,
      "껭": 2248,
      "껴": 2249,
      "꼇": 2250,
      "꼈": 2251,
      "꼍": 2252,
      "꼐": 2253,
      "꼬": 2254,
      "꼭": 2255,
      "꼰": 2256,
      "꼴": 2257,
      "꼼": 2258,
      "꼽": 2259,
      "꼿": 2260,
      "꽁": 2261,
      "꽂": 2262,
      "꽃": 2263,
      "꽈": 2264,
      "꽉": 2265,
      "꽌": 2266,
      "꽐": 2267,
      "꽝": 2268,
      "꽤": 2269,
      "꽥": 2270,
      "꽹": 2271,
      "꾀": 2272,
      "꾐": 2273,
      "꾜": 2274,
      "꾸": 2275,
      "꾹": 2276,
      "꾼": 2277,
      "꾿": 2278,
      "꿀": 2279,
      "꿇": 2280,
      "꿈": 2281,
      "꿉": 2282,
      "꿋": 2283,
      "꿍": 2284,
      "꿎": 2285,
      "꿏": 2286,
      "꿔": 2287,
      "꿘": 2288,
      "꿜": 2289,
      "꿧": 2290,
      "꿨": 2291,
      "꿩": 2292,
      "꿰": 2293,
      "꿴": 2294,
      "뀌": 2295,
      "뀐": 2296,
      "뀔": 2297,
      "뀜": 2298,
      "뀝": 2299,
      "뀨": 2300,
      "끄": 2301,
      "끅": 2302,
      "끈": 2303,
      "끊": 2304,
      "끋": 2305,
      "끌": 2306,
      "끍": 2307,
      "끓": 2308,
      "끔": 2309,
      "끕": 2310,
      "끗": 2311,
      "끙": 2312,
      "끝": 2313,
      "끠": 2314,
      "끼": 2315,
      "끽": 2316,
      "낀": 2317,
      "낄": 2318,
      "낌": 2319,
      "낍": 2320,
      "낏": 2321,
      "낑": 2322,
      "나": 2323,
      "낙": 2324,
      "낚": 2325,
      "난": 2326,
      "낟": 2327,
      "날": 2328,
      "낡": 2329,
      "남": 2330,
      "납": 2331,
      "낫": 2332,
      "났": 2333,
      "낭": 2334,
      "낮": 2335,
      "낯": 2336,
      "낰": 2337,
      "낱": 2338,
      "낳": 2339,
      "내": 2340,
      "낵": 2341,
      "낸": 2342,
      "낼": 2343,
      "냄": 2344,
      "냅": 2345,
      "냇": 2346,
      "냈": 2347,
      "냉": 2348,
      "냐": 2349,
      "냑": 2350,
      "냔": 2351,
      "냘": 2352,
      "냠": 2353,
      "냣": 2354,
      "냥": 2355,
      "냨": 2356,
      "냬": 2357,
      "너": 2358,
      "넉": 2359,
      "넋": 2360,
      "넌": 2361,
      "널": 2362,
      "넒": 2363,
      "넓": 2364,
      "넘": 2365,
      "넙": 2366,
      "넛": 2367,
      "넜": 2368,
      "넝": 2369,
      "넣": 2370,
      "네": 2371,
      "넥": 2372,
      "넨": 2373,
      "넬": 2374,
      "넴": 2375,
      "넵": 2376,
      "넷": 2377,
      "넸": 2378,
      "넹": 2379,
      "넼": 2380,
      "녀": 2381,
      "녁": 2382,
      "년": 2383,
      "녈": 2384,
      "념": 2385,
      "녓": 2386,
      "녔": 2387,
      "녕": 2388,
      "녘": 2389,
      "녜": 2390,
      "녠": 2391,
      "녤": 2392,
      "노": 2393,
      "녹": 2394,
      "논": 2395,
      "놀": 2396,
      "놈": 2397,
      "놉": 2398,
      "놋": 2399,
      "농": 2400,
      "놐": 2401,
      "높": 2402,
      "놓": 2403,
      "놔": 2404,
      "놧": 2405,
      "놨": 2406,
      "놯": 2407,
      "놰": 2408,
      "뇌": 2409,
      "뇐": 2410,
      "뇨": 2411,
      "뇬": 2412,
      "뇰": 2413,
      "뇸": 2414,
      "뇽": 2415,
      "누": 2416,
      "눅": 2417,
      "눈": 2418,
      "눌": 2419,
      "눔": 2420,
      "눕": 2421,
      "눗": 2422,
      "눙": 2423,
      "눞": 2424,
      "눟": 2425,
      "눠": 2426,
      "눴": 2427,
      "눼": 2428,
      "뉘": 2429,
      "뉜": 2430,
      "뉠": 2431,
      "뉨": 2432,
      "뉩": 2433,
      "뉴": 2434,
      "뉸": 2435,
      "뉼": 2436,
      "늄": 2437,
      "늉": 2438,
      "느": 2439,
      "늑": 2440,
      "는": 2441,
      "늕": 2442,
      "늗": 2443,
      "늘": 2444,
      "늙": 2445,
      "늠": 2446,
      "늣": 2447,
      "능": 2448,
      "늦": 2449,
      "늧": 2450,
      "늪": 2451,
      "늫": 2452,
      "늬": 2453,
      "니": 2454,
      "닉": 2455,
      "닌": 2456,
      "닏": 2457,
      "닐": 2458,
      "님": 2459,
      "닙": 2460,
      "닛": 2461,
      "닜": 2462,
      "닝": 2463,
      "닞": 2464,
      "닠": 2465,
      "닢": 2466,
      "다": 2467,
      "닥": 2468,
      "닦": 2469,
      "단": 2470,
      "닫": 2471,
      "달": 2472,
      "닭": 2473,
      "닮": 2474,
      "닯": 2475,
      "닳": 2476,
      "담": 2477,
      "답": 2478,
      "닶": 2479,
      "닷": 2480,
      "당": 2481,
      "닺": 2482,
      "닻": 2483,
      "닼": 2484,
      "닽": 2485,
      "닿": 2486,
      "대": 2487,
      "댁": 2488,
      "댄": 2489,
      "댈": 2490,
      "댐": 2491,
      "댑": 2492,
      "댓": 2493,
      "댔": 2494,
      "댕": 2495,
      "댘": 2496,
      "댜": 2497,
      "댠": 2498,
      "댱": 2499,
      "댸": 2500,
      "더": 2501,
      "덕": 2502,
      "덖": 2503,
      "던": 2504,
      "덜": 2505,
      "덟": 2506,
      "덤": 2507,
      "덥": 2508,
      "덧": 2509,
      "덩": 2510,
      "덫": 2511,
      "덮": 2512,
      "덯": 2513,
      "데": 2514,
      "덱": 2515,
      "덴": 2516,
      "델": 2517,
      "뎀": 2518,
      "뎁": 2519,
      "뎃": 2520,
      "뎄": 2521,
      "뎅": 2522,
      "뎈": 2523,
      "뎌": 2524,
      "뎐": 2525,
      "뎠": 2526,
      "뎡": 2527,
      "뎨": 2528,
      "뎬": 2529,
      "도": 2530,
      "독": 2531,
      "돈": 2532,
      "돋": 2533,
      "돌": 2534,
      "돔": 2535,
      "돕": 2536,
      "돗": 2537,
      "동": 2538,
      "돚": 2539,
      "돛": 2540,
      "돜": 2541,
      "돝": 2542,
      "돟": 2543,
      "돠": 2544,
      "돤": 2545,
      "돨": 2546,
      "돼": 2547,
      "됀": 2548,
      "됄": 2549,
      "됌": 2550,
      "됍": 2551,
      "됏": 2552,
      "됐": 2553,
      "되": 2554,
      "된": 2555,
      "될": 2556,
      "됨": 2557,
      "됩": 2558,
      "됫": 2559,
      "됬": 2560,
      "됭": 2561,
      "됴": 2562,
      "둉": 2563,
      "두": 2564,
      "둑": 2565,
      "둔": 2566,
      "둘": 2567,
      "둠": 2568,
      "둡": 2569,
      "둣": 2570,
      "둥": 2571,
      "둬": 2572,
      "둿": 2573,
      "뒀": 2574,
      "뒈": 2575,
      "뒤": 2576,
      "뒷": 2577,
      "뒹": 2578,
      "듀": 2579,
      "듁": 2580,
      "듄": 2581,
      "듈": 2582,
      "듐": 2583,
      "듕": 2584,
      "드": 2585,
      "득": 2586,
      "든": 2587,
      "듣": 2588,
      "들": 2589,
      "듦": 2590,
      "듬": 2591,
      "듭": 2592,
      "듯": 2593,
      "등": 2594,
      "듵": 2595,
      "듷": 2596,
      "듸": 2597,
      "딋": 2598,
      "딍": 2599,
      "디": 2600,
      "딕": 2601,
      "딘": 2602,
      "딛": 2603,
      "딜": 2604,
      "딤": 2605,
      "딥": 2606,
      "딧": 2607,
      "딨": 2608,
      "딩": 2609,
      "딪": 2610,
      "딫": 2611,
      "따": 2612,
      "딱": 2613,
      "딲": 2614,
      "딴": 2615,
      "딸": 2616,
      "딹": 2617,
      "땀": 2618,
      "땁": 2619,
      "땃": 2620,
      "땄": 2621,
      "땅": 2622,
      "땋": 2623,
      "때": 2624,
      "땍": 2625,
      "땐": 2626,
      "땔": 2627,
      "땜": 2628,
      "땝": 2629,
      "땟": 2630,
      "땠": 2631,
      "땡": 2632,
      "땨": 2633,
      "떄": 2634,
      "떈": 2635,
      "떔": 2636,
      "떙": 2637,
      "떠": 2638,
      "떡": 2639,
      "떢": 2640,
      "떤": 2641,
      "떨": 2642,
      "떫": 2643,
      "떰": 2644,
      "떱": 2645,
      "떳": 2646,
      "떴": 2647,
      "떵": 2648,
      "떻": 2649,
      "떼": 2650,
      "떽": 2651,
      "뗀": 2652,
      "뗄": 2653,
      "뗌": 2654,
      "뗏": 2655,
      "뗐": 2656,
      "뗑": 2657,
      "뗘": 2658,
      "뗴": 2659,
      "또": 2660,
      "똑": 2661,
      "똔": 2662,
      "똘": 2663,
      "똠": 2664,
      "똣": 2665,
      "똥": 2666,
      "똬": 2667,
      "똭": 2668,
      "뙇": 2669,
      "뙈": 2670,
      "뙤": 2671,
      "뙨": 2672,
      "뚜": 2673,
      "뚝": 2674,
      "뚠": 2675,
      "뚤": 2676,
      "뚫": 2677,
      "뚯": 2678,
      "뚱": 2679,
      "뛔": 2680,
      "뛰": 2681,
      "뛴": 2682,
      "뛸": 2683,
      "뜀": 2684,
      "뜁": 2685,
      "뜨": 2686,
      "뜩": 2687,
      "뜬": 2688,
      "뜯": 2689,
      "뜰": 2690,
      "뜷": 2691,
      "뜸": 2692,
      "뜹": 2693,
      "뜻": 2694,
      "뜽": 2695,
      "뜾": 2696,
      "띁": 2697,
      "띄": 2698,
      "띈": 2699,
      "띌": 2700,
      "띔": 2701,
      "띕": 2702,
      "띠": 2703,
      "띡": 2704,
      "띤": 2705,
      "띨": 2706,
      "띱": 2707,
      "띵": 2708,
      "라": 2709,
      "락": 2710,
      "란": 2711,
      "랃": 2712,
      "랄": 2713,
      "람": 2714,
      "랍": 2715,
      "랏": 2716,
      "랐": 2717,
      "랑": 2718,
      "랒": 2719,
      "랔": 2720,
      "랖": 2721,
      "랗": 2722,
      "래": 2723,
      "랙": 2724,
      "랜": 2725,
      "랠": 2726,
      "램": 2727,
      "랩": 2728,
      "랫": 2729,
      "랬": 2730,
      "랭": 2731,
      "랰": 2732,
      "랴": 2733,
      "략": 2734,
      "랸": 2735,
      "랼": 2736,
      "럄": 2737,
      "럈": 2738,
      "량": 2739,
      "럐": 2740,
      "러": 2741,
      "럭": 2742,
      "런": 2743,
      "럴": 2744,
      "럼": 2745,
      "럽": 2746,
      "럿": 2747,
      "렀": 2748,
      "렁": 2749,
      "렇": 2750,
      "레": 2751,
      "렉": 2752,
      "렌": 2753,
      "렐": 2754,
      "렘": 2755,
      "렙": 2756,
      "렛": 2757,
      "렜": 2758,
      "렝": 2759,
      "렠": 2760,
      "려": 2761,
      "력": 2762,
      "련": 2763,
      "렬": 2764,
      "렴": 2765,
      "렵": 2766,
      "렷": 2767,
      "렸": 2768,
      "령": 2769,
      "렿": 2770,
      "례": 2771,
      "롄": 2772,
      "로": 2773,
      "록": 2774,
      "론": 2775,
      "롤": 2776,
      "롬": 2777,
      "롭": 2778,
      "롯": 2779,
      "롱": 2780,
      "롴": 2781,
      "롷": 2782,
      "롸": 2783,
      "롹": 2784,
      "롼": 2785,
      "뢀": 2786,
      "뢔": 2787,
      "뢰": 2788,
      "뢴": 2789,
      "뢸": 2790,
      "룀": 2791,
      "료": 2792,
      "룐": 2793,
      "룔": 2794,
      "룟": 2795,
      "룡": 2796,
      "루": 2797,
      "룩": 2798,
      "룬": 2799,
      "룰": 2800,
      "룸": 2801,
      "룹": 2802,
      "룻": 2803,
      "룽": 2804,
      "뤄": 2805,
      "뤈": 2806,
      "뤌": 2807,
      "뤘": 2808,
      "뤠": 2809,
      "뤡": 2810,
      "뤼": 2811,
      "뤽": 2812,
      "륀": 2813,
      "륄": 2814,
      "륌": 2815,
      "류": 2816,
      "륙": 2817,
      "륜": 2818,
      "률": 2819,
      "륨": 2820,
      "륭": 2821,
      "르": 2822,
      "륵": 2823,
      "른": 2824,
      "를": 2825,
      "름": 2826,
      "릅": 2827,
      "릇": 2828,
      "릉": 2829,
      "릎": 2830,
      "릏": 2831,
      "릐": 2832,
      "리": 2833,
      "릭": 2834,
      "린": 2835,
      "릴": 2836,
      "림": 2837,
      "립": 2838,
      "릿": 2839,
      "맀": 2840,
      "링": 2841,
      "맄": 2842,
      "맇": 2843,
      "마": 2844,
      "막": 2845,
      "만": 2846,
      "많": 2847,
      "맏": 2848,
      "말": 2849,
      "맑": 2850,
      "맗": 2851,
      "맘": 2852,
      "맙": 2853,
      "맛": 2854,
      "맜": 2855,
      "망": 2856,
      "맞": 2857,
      "맟": 2858,
      "맠": 2859,
      "맡": 2860,
      "맣": 2861,
      "매": 2862,
      "맥": 2863,
      "맨": 2864,
      "맬": 2865,
      "맴": 2866,
      "맵": 2867,
      "맷": 2868,
      "맸": 2869,
      "맹": 2870,
      "맺": 2871,
      "먀": 2872,
      "먄": 2873,
      "먈": 2874,
      "먐": 2875,
      "먕": 2876,
      "먜": 2877,
      "머": 2878,
      "먹": 2879,
      "먼": 2880,
      "멀": 2881,
      "멈": 2882,
      "멉": 2883,
      "멊": 2884,
      "멋": 2885,
      "멍": 2886,
      "멎": 2887,
      "멏": 2888,
      "멓": 2889,
      "메": 2890,
      "멕": 2891,
      "멘": 2892,
      "멜": 2893,
      "멤": 2894,
      "멥": 2895,
      "멧": 2896,
      "멨": 2897,
      "멩": 2898,
      "며": 2899,
      "멱": 2900,
      "면": 2901,
      "멸": 2902,
      "몀": 2903,
      "몃": 2904,
      "몄": 2905,
      "명": 2906,
      "몆": 2907,
      "몇": 2908,
      "몈": 2909,
      "몌": 2910,
      "몐": 2911,
      "모": 2912,
      "목": 2913,
      "몪": 2914,
      "몫": 2915,
      "몬": 2916,
      "몯": 2917,
      "몰": 2918,
      "몸": 2919,
      "몹": 2920,
      "못": 2921,
      "몽": 2922,
      "몾": 2923,
      "뫃": 2924,
      "뫄": 2925,
      "뫼": 2926,
      "묀": 2927,
      "묄": 2928,
      "묏": 2929,
      "묘": 2930,
      "묜": 2931,
      "묫": 2932,
      "묭": 2933,
      "무": 2934,
      "묵": 2935,
      "묶": 2936,
      "문": 2937,
      "묹": 2938,
      "묻": 2939,
      "물": 2940,
      "묽": 2941,
      "뭄": 2942,
      "뭅": 2943,
      "뭇": 2944,
      "뭉": 2945,
      "뭍": 2946,
      "뭏": 2947,
      "뭐": 2948,
      "뭔": 2949,
      "뭘": 2950,
      "뭡": 2951,
      "뭣": 2952,
      "뭤": 2953,
      "뭥": 2954,
      "뭬": 2955,
      "뮈": 2956,
      "뮌": 2957,
      "뮐": 2958,
      "뮛": 2959,
      "뮤": 2960,
      "뮨": 2961,
      "뮬": 2962,
      "뮴": 2963,
      "므": 2964,
      "믁": 2965,
      "믄": 2966,
      "믈": 2967,
      "믐": 2968,
      "믓": 2969,
      "믕": 2970,
      "믜": 2971,
      "미": 2972,
      "믹": 2973,
      "민": 2974,
      "믽": 2975,
      "믾": 2976,
      "믿": 2977,
      "밀": 2978,
      "밈": 2979,
      "밉": 2980,
      "밋": 2981,
      "밌": 2982,
      "밍": 2983,
      "밎": 2984,
      "및": 2985,
      "밑": 2986,
      "바": 2987,
      "박": 2988,
      "밖": 2989,
      "반": 2990,
      "받": 2991,
      "발": 2992,
      "밝": 2993,
      "밞": 2994,
      "밟": 2995,
      "밢": 2996,
      "밣": 2997,
      "밤": 2998,
      "밥": 2999,
      "밧": 3000,
      "밨": 3001,
      "방": 3002,
      "밪": 3003,
      "밬": 3004,
      "밭": 3005,
      "배": 3006,
      "백": 3007,
      "밴": 3008,
      "밷": 3009,
      "밸": 3010,
      "뱀": 3011,
      "뱁": 3012,
      "뱃": 3013,
      "뱄": 3014,
      "뱅": 3015,
      "뱉": 3016,
      "뱌": 3017,
      "뱍": 3018,
      "뱐": 3019,
      "뱔": 3020,
      "뱡": 3021,
      "버": 3022,
      "벅": 3023,
      "번": 3024,
      "벋": 3025,
      "벌": 3026,
      "범": 3027,
      "법": 3028,
      "벗": 3029,
      "벙": 3030,
      "벚": 3031,
      "벞": 3032,
      "베": 3033,
      "벡": 3034,
      "벤": 3035,
      "벧": 3036,
      "벨": 3037,
      "벰": 3038,
      "벱": 3039,
      "벳": 3040,
      "벵": 3041,
      "벹": 3042,
      "벼": 3043,
      "벽": 3044,
      "변": 3045,
      "별": 3046,
      "볌": 3047,
      "볍": 3048,
      "볏": 3049,
      "볐": 3050,
      "병": 3051,
      "볓": 3052,
      "볕": 3053,
      "볗": 3054,
      "볘": 3055,
      "볜": 3056,
      "보": 3057,
      "복": 3058,
      "볶": 3059,
      "본": 3060,
      "볼": 3061,
      "봄": 3062,
      "봅": 3063,
      "봇": 3064,
      "봉": 3065,
      "봊": 3066,
      "봐": 3067,
      "봘": 3068,
      "봣": 3069,
      "봤": 3070,
      "봥": 3071,
      "봨": 3072,
      "봬": 3073,
      "뵀": 3074,
      "뵈": 3075,
      "뵌": 3076,
      "뵐": 3077,
      "뵘": 3078,
      "뵙": 3079,
      "뵜": 3080,
      "뵤": 3081,
      "뵨": 3082,
      "뵹": 3083,
      "부": 3084,
      "북": 3085,
      "분": 3086,
      "붇": 3087,
      "불": 3088,
      "붉": 3089,
      "붐": 3090,
      "붑": 3091,
      "붓": 3092,
      "붕": 3093,
      "붘": 3094,
      "붙": 3095,
      "붜": 3096,
      "붤": 3097,
      "붱": 3098,
      "붸": 3099,
      "뷔": 3100,
      "뷜": 3101,
      "뷩": 3102,
      "뷰": 3103,
      "뷱": 3104,
      "뷴": 3105,
      "뷸": 3106,
      "븀": 3107,
      "븅": 3108,
      "브": 3109,
      "븍": 3110,
      "븐": 3111,
      "블": 3112,
      "븡": 3113,
      "븥": 3114,
      "븨": 3115,
      "븽": 3116,
      "비": 3117,
      "빅": 3118,
      "빈": 3119,
      "빋": 3120,
      "빌": 3121,
      "빔": 3122,
      "빕": 3123,
      "빗": 3124,
      "빙": 3125,
      "빚": 3126,
      "빛": 3127,
      "빠": 3128,
      "빡": 3129,
      "빢": 3130,
      "빤": 3131,
      "빨": 3132,
      "빩": 3133,
      "빰": 3134,
      "빱": 3135,
      "빳": 3136,
      "빴": 3137,
      "빵": 3138,
      "빻": 3139,
      "빼": 3140,
      "빽": 3141,
      "뺀": 3142,
      "뺃": 3143,
      "뺄": 3144,
      "뺌": 3145,
      "뺍": 3146,
      "뺏": 3147,
      "뺐": 3148,
      "뺑": 3149,
      "뺘": 3150,
      "뺠": 3151,
      "뺨": 3152,
      "뺴": 3153,
      "뻇": 3154,
      "뻐": 3155,
      "뻑": 3156,
      "뻔": 3157,
      "뻗": 3158,
      "뻘": 3159,
      "뻡": 3160,
      "뻣": 3161,
      "뻤": 3162,
      "뻥": 3163,
      "뻬": 3164,
      "뻴": 3165,
      "뼈": 3166,
      "뼉": 3167,
      "뼘": 3168,
      "뼛": 3169,
      "뼝": 3170,
      "뽀": 3171,
      "뽁": 3172,
      "뽂": 3173,
      "뽄": 3174,
      "뽈": 3175,
      "뽐": 3176,
      "뽑": 3177,
      "뽕": 3178,
      "뽜": 3179,
      "뽝": 3180,
      "뽤": 3181,
      "뾰": 3182,
      "뿅": 3183,
      "뿌": 3184,
      "뿍": 3185,
      "뿐": 3186,
      "뿔": 3187,
      "뿜": 3188,
      "뿟": 3189,
      "뿡": 3190,
      "쀼": 3191,
      "쁘": 3192,
      "쁜": 3193,
      "쁠": 3194,
      "쁨": 3195,
      "쁩": 3196,
      "삐": 3197,
      "삑": 3198,
      "삔": 3199,
      "삘": 3200,
      "삣": 3201,
      "삥": 3202,
      "사": 3203,
      "삭": 3204,
      "삯": 3205,
      "산": 3206,
      "살": 3207,
      "삵": 3208,
      "삶": 3209,
      "삻": 3210,
      "삼": 3211,
      "삽": 3212,
      "삿": 3213,
      "샀": 3214,
      "상": 3215,
      "샅": 3216,
      "샆": 3217,
      "샇": 3218,
      "새": 3219,
      "색": 3220,
      "샊": 3221,
      "샋": 3222,
      "샌": 3223,
      "샏": 3224,
      "샐": 3225,
      "샘": 3226,
      "샙": 3227,
      "샛": 3228,
      "샜": 3229,
      "생": 3230,
      "샠": 3231,
      "샡": 3232,
      "샣": 3233,
      "샤": 3234,
      "샥": 3235,
      "샨": 3236,
      "샬": 3237,
      "샴": 3238,
      "샵": 3239,
      "샷": 3240,
      "샹": 3241,
      "샾": 3242,
      "섀": 3243,
      "섁": 3244,
      "섕": 3245,
      "서": 3246,
      "석": 3247,
      "섞": 3248,
      "선": 3249,
      "섣": 3250,
      "설": 3251,
      "섦": 3252,
      "섬": 3253,
      "섭": 3254,
      "섯": 3255,
      "섰": 3256,
      "성": 3257,
      "섴": 3258,
      "섶": 3259,
      "세": 3260,
      "섹": 3261,
      "섺": 3262,
      "센": 3263,
      "셀": 3264,
      "셈": 3265,
      "셉": 3266,
      "셋": 3267,
      "셌": 3268,
      "셍": 3269,
      "셐": 3270,
      "셑": 3271,
      "셓": 3272,
      "셔": 3273,
      "셕": 3274,
      "션": 3275,
      "셜": 3276,
      "셤": 3277,
      "셥": 3278,
      "셧": 3279,
      "셨": 3280,
      "셩": 3281,
      "셰": 3282,
      "셱": 3283,
      "셴": 3284,
      "셸": 3285,
      "솅": 3286,
      "소": 3287,
      "속": 3288,
      "솎": 3289,
      "손": 3290,
      "솓": 3291,
      "솔": 3292,
      "솜": 3293,
      "솝": 3294,
      "솟": 3295,
      "송": 3296,
      "솤": 3297,
      "솥": 3298,
      "솨": 3299,
      "솰": 3300,
      "솽": 3301,
      "쇄": 3302,
      "쇅": 3303,
      "쇆": 3304,
      "쇗": 3305,
      "쇠": 3306,
      "쇤": 3307,
      "쇳": 3308,
      "쇼": 3309,
      "쇽": 3310,
      "숀": 3311,
      "숄": 3312,
      "숌": 3313,
      "숍": 3314,
      "숏": 3315,
      "숑": 3316,
      "수": 3317,
      "숙": 3318,
      "순": 3319,
      "숟": 3320,
      "술": 3321,
      "숨": 3322,
      "숩": 3323,
      "숫": 3324,
      "숭": 3325,
      "숯": 3326,
      "숱": 3327,
      "숲": 3328,
      "숴": 3329,
      "숵": 3330,
      "숸": 3331,
      "숼": 3332,
      "쉅": 3333,
      "쉈": 3334,
      "쉐": 3335,
      "쉑": 3336,
      "쉒": 3337,
      "쉔": 3338,
      "쉘": 3339,
      "쉣": 3340,
      "쉥": 3341,
      "쉨": 3342,
      "쉬": 3343,
      "쉭": 3344,
      "쉰": 3345,
      "쉴": 3346,
      "쉼": 3347,
      "쉽": 3348,
      "쉿": 3349,
      "슁": 3350,
      "슈": 3351,
      "슉": 3352,
      "슌": 3353,
      "슐": 3354,
      "슘": 3355,
      "슙": 3356,
      "슛": 3357,
      "슝": 3358,
      "스": 3359,
      "슥": 3360,
      "슨": 3361,
      "슬": 3362,
      "슭": 3363,
      "슴": 3364,
      "습": 3365,
      "슷": 3366,
      "승": 3367,
      "슼": 3368,
      "슾": 3369,
      "싀": 3370,
      "싄": 3371,
      "싈": 3372,
      "싑": 3373,
      "시": 3374,
      "식": 3375,
      "신": 3376,
      "싢": 3377,
      "싣": 3378,
      "실": 3379,
      "싨": 3380,
      "싫": 3381,
      "심": 3382,
      "십": 3383,
      "싯": 3384,
      "싰": 3385,
      "싱": 3386,
      "싳": 3387,
      "싴": 3388,
      "싶": 3389,
      "싷": 3390,
      "싸": 3391,
      "싹": 3392,
      "싼": 3393,
      "쌀": 3394,
      "쌂": 3395,
      "쌈": 3396,
      "쌉": 3397,
      "쌋": 3398,
      "쌌": 3399,
      "쌍": 3400,
      "쌓": 3401,
      "쌔": 3402,
      "쌕": 3403,
      "쌖": 3404,
      "쌘": 3405,
      "쌤": 3406,
      "쌨": 3407,
      "쌩": 3408,
      "쌰": 3409,
      "썅": 3410,
      "썌": 3411,
      "써": 3412,
      "썩": 3413,
      "썪": 3414,
      "썬": 3415,
      "썰": 3416,
      "썸": 3417,
      "썹": 3418,
      "썻": 3419,
      "썼": 3420,
      "썽": 3421,
      "쎀": 3422,
      "쎄": 3423,
      "쎅": 3424,
      "쎈": 3425,
      "쎌": 3426,
      "쎔": 3427,
      "쎘": 3428,
      "쎠": 3429,
      "쎼": 3430,
      "쏘": 3431,
      "쏙": 3432,
      "쏜": 3433,
      "쏟": 3434,
      "쏠": 3435,
      "쏨": 3436,
      "쏩": 3437,
      "쏫": 3438,
      "쏭": 3439,
      "쏱": 3440,
      "쏴": 3441,
      "쏵": 3442,
      "쏼": 3443,
      "쐇": 3444,
      "쐈": 3445,
      "쐐": 3446,
      "쐑": 3447,
      "쐬": 3448,
      "쐴": 3449,
      "쑈": 3450,
      "쑤": 3451,
      "쑥": 3452,
      "쑨": 3453,
      "쑬": 3454,
      "쑴": 3455,
      "쑵": 3456,
      "쑹": 3457,
      "쒀": 3458,
      "쒜": 3459,
      "쒝": 3460,
      "쒞": 3461,
      "쒸": 3462,
      "쒼": 3463,
      "쓉": 3464,
      "쓔": 3465,
      "쓰": 3466,
      "쓱": 3467,
      "쓴": 3468,
      "쓸": 3469,
      "씀": 3470,
      "씁": 3471,
      "씅": 3472,
      "씌": 3473,
      "씐": 3474,
      "씝": 3475,
      "씨": 3476,
      "씩": 3477,
      "씬": 3478,
      "씰": 3479,
      "씸": 3480,
      "씹": 3481,
      "씻": 3482,
      "씼": 3483,
      "씽": 3484,
      "앂": 3485,
      "아": 3486,
      "악": 3487,
      "안": 3488,
      "앉": 3489,
      "않": 3490,
      "앋": 3491,
      "알": 3492,
      "앍": 3493,
      "앎": 3494,
      "앓": 3495,
      "암": 3496,
      "압": 3497,
      "앖": 3498,
      "앗": 3499,
      "았": 3500,
      "앙": 3501,
      "앚": 3502,
      "앜": 3503,
      "앝": 3504,
      "앞": 3505,
      "앟": 3506,
      "애": 3507,
      "액": 3508,
      "앤": 3509,
      "앨": 3510,
      "앰": 3511,
      "앱": 3512,
      "앳": 3513,
      "앴": 3514,
      "앵": 3515,
      "야": 3516,
      "약": 3517,
      "얀": 3518,
      "얄": 3519,
      "얇": 3520,
      "얌": 3521,
      "얍": 3522,
      "얏": 3523,
      "얐": 3524,
      "양": 3525,
      "얔": 3526,
      "얕": 3527,
      "얗": 3528,
      "얘": 3529,
      "얜": 3530,
      "어": 3531,
      "억": 3532,
      "얶": 3533,
      "언": 3534,
      "얹": 3535,
      "얺": 3536,
      "얻": 3537,
      "얼": 3538,
      "얽": 3539,
      "엄": 3540,
      "업": 3541,
      "없": 3542,
      "엇": 3543,
      "었": 3544,
      "엉": 3545,
      "엊": 3546,
      "엌": 3547,
      "엎": 3548,
      "엏": 3549,
      "에": 3550,
      "엑": 3551,
      "엔": 3552,
      "엘": 3553,
      "엠": 3554,
      "엡": 3555,
      "엣": 3556,
      "엤": 3557,
      "엥": 3558,
      "엨": 3559,
      "여": 3560,
      "역": 3561,
      "엮": 3562,
      "연": 3563,
      "열": 3564,
      "엷": 3565,
      "염": 3566,
      "엽": 3567,
      "엾": 3568,
      "엿": 3569,
      "였": 3570,
      "영": 3571,
      "옄": 3572,
      "옅": 3573,
      "옆": 3574,
      "옇": 3575,
      "예": 3576,
      "옌": 3577,
      "옐": 3578,
      "옘": 3579,
      "옙": 3580,
      "옛": 3581,
      "옜": 3582,
      "오": 3583,
      "옥": 3584,
      "온": 3585,
      "올": 3586,
      "옭": 3587,
      "옮": 3588,
      "옳": 3589,
      "옴": 3590,
      "옵": 3591,
      "옶": 3592,
      "옷": 3593,
      "옹": 3594,
      "옺": 3595,
      "옻": 3596,
      "옼": 3597,
      "옿": 3598,
      "와": 3599,
      "왁": 3600,
      "완": 3601,
      "왈": 3602,
      "왐": 3603,
      "왑": 3604,
      "왓": 3605,
      "왔": 3606,
      "왕": 3607,
      "왘": 3608,
      "왜": 3609,
      "왝": 3610,
      "왠": 3611,
      "왤": 3612,
      "왱": 3613,
      "외": 3614,
      "왹": 3615,
      "왼": 3616,
      "욀": 3617,
      "욋": 3618,
      "욌": 3619,
      "욍": 3620,
      "요": 3621,
      "욕": 3622,
      "욘": 3623,
      "욜": 3624,
      "욤": 3625,
      "욥": 3626,
      "욧": 3627,
      "용": 3628,
      "욬": 3629,
      "욯": 3630,
      "우": 3631,
      "욱": 3632,
      "운": 3633,
      "울": 3634,
      "욹": 3635,
      "움": 3636,
      "웁": 3637,
      "웂": 3638,
      "웃": 3639,
      "웅": 3640,
      "워": 3641,
      "웍": 3642,
      "원": 3643,
      "월": 3644,
      "웜": 3645,
      "웟": 3646,
      "웠": 3647,
      "웡": 3648,
      "웤": 3649,
      "웨": 3650,
      "웩": 3651,
      "웬": 3652,
      "웰": 3653,
      "웸": 3654,
      "웹": 3655,
      "웻": 3656,
      "웽": 3657,
      "위": 3658,
      "윅": 3659,
      "윈": 3660,
      "윌": 3661,
      "윔": 3662,
      "윕": 3663,
      "윗": 3664,
      "윘": 3665,
      "윙": 3666,
      "유": 3667,
      "육": 3668,
      "윤": 3669,
      "율": 3670,
      "윰": 3671,
      "윱": 3672,
      "윳": 3673,
      "융": 3674,
      "윷": 3675,
      "으": 3676,
      "윽": 3677,
      "윾": 3678,
      "은": 3679,
      "읁": 3680,
      "읃": 3681,
      "을": 3682,
      "읇": 3683,
      "읊": 3684,
      "음": 3685,
      "읍": 3686,
      "읎": 3687,
      "읏": 3688,
      "응": 3689,
      "읔": 3690,
      "읕": 3691,
      "읖": 3692,
      "읗": 3693,
      "의": 3694,
      "읜": 3695,
      "읭": 3696,
      "이": 3697,
      "익": 3698,
      "읶": 3699,
      "인": 3700,
      "읹": 3701,
      "읺": 3702,
      "읻": 3703,
      "일": 3704,
      "읽": 3705,
      "읿": 3706,
      "잃": 3707,
      "임": 3708,
      "입": 3709,
      "잆": 3710,
      "잇": 3711,
      "있": 3712,
      "잉": 3713,
      "잊": 3714,
      "잋": 3715,
      "잌": 3716,
      "잍": 3717,
      "잎": 3718,
      "잏": 3719,
      "자": 3720,
      "작": 3721,
      "잔": 3722,
      "잖": 3723,
      "잗": 3724,
      "잘": 3725,
      "잠": 3726,
      "잡": 3727,
      "잣": 3728,
      "잤": 3729,
      "장": 3730,
      "잦": 3731,
      "잨": 3732,
      "잪": 3733,
      "잫": 3734,
      "재": 3735,
      "잭": 3736,
      "잰": 3737,
      "잴": 3738,
      "잼": 3739,
      "잽": 3740,
      "잿": 3741,
      "쟀": 3742,
      "쟁": 3743,
      "쟈": 3744,
      "쟉": 3745,
      "쟌": 3746,
      "쟎": 3747,
      "쟐": 3748,
      "쟙": 3749,
      "쟛": 3750,
      "쟝": 3751,
      "쟤": 3752,
      "쟨": 3753,
      "저": 3754,
      "적": 3755,
      "전": 3756,
      "젇": 3757,
      "절": 3758,
      "젊": 3759,
      "젋": 3760,
      "점": 3761,
      "접": 3762,
      "젓": 3763,
      "젔": 3764,
      "정": 3765,
      "젖": 3766,
      "젙": 3767,
      "젛": 3768,
      "제": 3769,
      "젝": 3770,
      "젠": 3771,
      "젤": 3772,
      "젬": 3773,
      "젭": 3774,
      "젯": 3775,
      "젱": 3776,
      "져": 3777,
      "젹": 3778,
      "젼": 3779,
      "졀": 3780,
      "졋": 3781,
      "졌": 3782,
      "졍": 3783,
      "졎": 3784,
      "졓": 3785,
      "졔": 3786,
      "졘": 3787,
      "조": 3788,
      "족": 3789,
      "존": 3790,
      "졷": 3791,
      "졸": 3792,
      "좀": 3793,
      "좁": 3794,
      "좃": 3795,
      "좄": 3796,
      "종": 3797,
      "좆": 3798,
      "좇": 3799,
      "좈": 3800,
      "좉": 3801,
      "좋": 3802,
      "좌": 3803,
      "좍": 3804,
      "좔": 3805,
      "좝": 3806,
      "좟": 3807,
      "좡": 3808,
      "좥": 3809,
      "좦": 3810,
      "좨": 3811,
      "죄": 3812,
      "죈": 3813,
      "죌": 3814,
      "죕": 3815,
      "죗": 3816,
      "죙": 3817,
      "죠": 3818,
      "죡": 3819,
      "죤": 3820,
      "죧": 3821,
      "죨": 3822,
      "죳": 3823,
      "죴": 3824,
      "죵": 3825,
      "죷": 3826,
      "죸": 3827,
      "죹": 3828,
      "주": 3829,
      "죽": 3830,
      "준": 3831,
      "줄": 3832,
      "줌": 3833,
      "줍": 3834,
      "줏": 3835,
      "중": 3836,
      "줒": 3837,
      "줗": 3838,
      "줘": 3839,
      "줙": 3840,
      "줜": 3841,
      "줠": 3842,
      "줫": 3843,
      "줬": 3844,
      "줭": 3845,
      "줮": 3846,
      "줴": 3847,
      "쥐": 3848,
      "쥑": 3849,
      "쥔": 3850,
      "쥘": 3851,
      "쥣": 3852,
      "쥤": 3853,
      "쥥": 3854,
      "쥬": 3855,
      "쥭": 3856,
      "쥰": 3857,
      "쥴": 3858,
      "쥼": 3859,
      "즁": 3860,
      "즈": 3861,
      "즉": 3862,
      "즌": 3863,
      "즐": 3864,
      "즘": 3865,
      "즙": 3866,
      "즛": 3867,
      "증": 3868,
      "즤": 3869,
      "즨": 3870,
      "즹": 3871,
      "지": 3872,
      "직": 3873,
      "진": 3874,
      "짆": 3875,
      "짇": 3876,
      "질": 3877,
      "짊": 3878,
      "짐": 3879,
      "집": 3880,
      "짒": 3881,
      "짓": 3882,
      "짔": 3883,
      "징": 3884,
      "짖": 3885,
      "짗": 3886,
      "짘": 3887,
      "짙": 3888,
      "짚": 3889,
      "짛": 3890,
      "짜": 3891,
      "짝": 3892,
      "짠": 3893,
      "짢": 3894,
      "짤": 3895,
      "짦": 3896,
      "짧": 3897,
      "짬": 3898,
      "짭": 3899,
      "짯": 3900,
      "짰": 3901,
      "짱": 3902,
      "짴": 3903,
      "째": 3904,
      "짹": 3905,
      "짼": 3906,
      "쨈": 3907,
      "쨉": 3908,
      "쨋": 3909,
      "쨌": 3910,
      "쨍": 3911,
      "쨔": 3912,
      "쨘": 3913,
      "쨩": 3914,
      "쨰": 3915,
      "쩌": 3916,
      "쩍": 3917,
      "쩐": 3918,
      "쩔": 3919,
      "쩜": 3920,
      "쩝": 3921,
      "쩟": 3922,
      "쩡": 3923,
      "쩨": 3924,
      "쪄": 3925,
      "쪈": 3926,
      "쪕": 3927,
      "쪘": 3928,
      "쪙": 3929,
      "쪹": 3930,
      "쪼": 3931,
      "쪽": 3932,
      "쪾": 3933,
      "쫀": 3934,
      "쫄": 3935,
      "쫌": 3936,
      "쫍": 3937,
      "쫏": 3938,
      "쫑": 3939,
      "쫒": 3940,
      "쫓": 3941,
      "쫗": 3942,
      "쫘": 3943,
      "쫙": 3944,
      "쫩": 3945,
      "쫭": 3946,
      "쬐": 3947,
      "쬔": 3948,
      "쬬": 3949,
      "쬭": 3950,
      "쭈": 3951,
      "쭉": 3952,
      "쭌": 3953,
      "쭐": 3954,
      "쭘": 3955,
      "쭙": 3956,
      "쭛": 3957,
      "쭝": 3958,
      "쭤": 3959,
      "쭵": 3960,
      "쮜": 3961,
      "쮸": 3962,
      "쯔": 3963,
      "쯕": 3964,
      "쯤": 3965,
      "쯥": 3966,
      "쯧": 3967,
      "쯩": 3968,
      "쯪": 3969,
      "찌": 3970,
      "찍": 3971,
      "찎": 3972,
      "찐": 3973,
      "찔": 3974,
      "찜": 3975,
      "찝": 3976,
      "찟": 3977,
      "찡": 3978,
      "찢": 3979,
      "찣": 3980,
      "찧": 3981,
      "차": 3982,
      "착": 3983,
      "찬": 3984,
      "찮": 3985,
      "찰": 3986,
      "참": 3987,
      "찹": 3988,
      "찻": 3989,
      "찼": 3990,
      "창": 3991,
      "찾": 3992,
      "찿": 3993,
      "채": 3994,
      "책": 3995,
      "챈": 3996,
      "챌": 3997,
      "챔": 3998,
      "챕": 3999,
      "챗": 4000,
      "챘": 4001,
      "챙": 4002,
      "챠": 4003,
      "챡": 4004,
      "챤": 4005,
      "챦": 4006,
      "챨": 4007,
      "챱": 4008,
      "챵": 4009,
      "처": 4010,
      "척": 4011,
      "천": 4012,
      "철": 4013,
      "첨": 4014,
      "첩": 4015,
      "첫": 4016,
      "첬": 4017,
      "청": 4018,
      "첮": 4019,
      "체": 4020,
      "첵": 4021,
      "첸": 4022,
      "첼": 4023,
      "쳄": 4024,
      "쳇": 4025,
      "쳉": 4026,
      "쳐": 4027,
      "쳑": 4028,
      "쳔": 4029,
      "쳣": 4030,
      "쳤": 4031,
      "쳥": 4032,
      "쳬": 4033,
      "초": 4034,
      "촉": 4035,
      "촌": 4036,
      "촐": 4037,
      "촘": 4038,
      "촙": 4039,
      "촛": 4040,
      "총": 4041,
      "촞": 4042,
      "촟": 4043,
      "촣": 4044,
      "촤": 4045,
      "촥": 4046,
      "촨": 4047,
      "촬": 4048,
      "촵": 4049,
      "촹": 4050,
      "최": 4051,
      "쵝": 4052,
      "쵸": 4053,
      "춍": 4054,
      "추": 4055,
      "축": 4056,
      "춘": 4057,
      "출": 4058,
      "춤": 4059,
      "춥": 4060,
      "춧": 4061,
      "충": 4062,
      "춰": 4063,
      "춴": 4064,
      "췃": 4065,
      "췄": 4066,
      "췌": 4067,
      "취": 4068,
      "췬": 4069,
      "츄": 4070,
      "츈": 4071,
      "츌": 4072,
      "츙": 4073,
      "츠": 4074,
      "측": 4075,
      "츤": 4076,
      "츨": 4077,
      "츰": 4078,
      "츳": 4079,
      "층": 4080,
      "츼": 4081,
      "칀": 4082,
      "치": 4083,
      "칙": 4084,
      "친": 4085,
      "칠": 4086,
      "칡": 4087,
      "침": 4088,
      "칩": 4089,
      "칫": 4090,
      "칬": 4091,
      "칭": 4092,
      "칮": 4093,
      "칰": 4094,
      "카": 4095,
      "칵": 4096,
      "칸": 4097,
      "칼": 4098,
      "캄": 4099,
      "캅": 4100,
      "캇": 4101,
      "캉": 4102,
      "캍": 4103,
      "캐": 4104,
      "캑": 4105,
      "캔": 4106,
      "캘": 4107,
      "캠": 4108,
      "캡": 4109,
      "캣": 4110,
      "캤": 4111,
      "캥": 4112,
      "캬": 4113,
      "캭": 4114,
      "컄": 4115,
      "커": 4116,
      "컥": 4117,
      "컨": 4118,
      "컫": 4119,
      "컬": 4120,
      "컴": 4121,
      "컵": 4122,
      "컷": 4123,
      "컸": 4124,
      "컹": 4125,
      "컾": 4126,
      "케": 4127,
      "켁": 4128,
      "켄": 4129,
      "켈": 4130,
      "켐": 4131,
      "켑": 4132,
      "켓": 4133,
      "켔": 4134,
      "켕": 4135,
      "켜": 4136,
      "켠": 4137,
      "켤": 4138,
      "켬": 4139,
      "켯": 4140,
      "켰": 4141,
      "켱": 4142,
      "켸": 4143,
      "코": 4144,
      "콕": 4145,
      "콘": 4146,
      "콜": 4147,
      "콤": 4148,
      "콥": 4149,
      "콧": 4150,
      "콩": 4151,
      "콰": 4152,
      "콱": 4153,
      "콴": 4154,
      "콸": 4155,
      "쾅": 4156,
      "쾈": 4157,
      "쾌": 4158,
      "쾡": 4159,
      "쾨": 4160,
      "쾰": 4161,
      "쿄": 4162,
      "쿠": 4163,
      "쿡": 4164,
      "쿤": 4165,
      "쿨": 4166,
      "쿰": 4167,
      "쿱": 4168,
      "쿳": 4169,
      "쿵": 4170,
      "쿸": 4171,
      "쿼": 4172,
      "퀀": 4173,
      "퀄": 4174,
      "퀘": 4175,
      "퀭": 4176,
      "퀴": 4177,
      "퀵": 4178,
      "퀸": 4179,
      "퀼": 4180,
      "큅": 4181,
      "큉": 4182,
      "큐": 4183,
      "큘": 4184,
      "크": 4185,
      "큭": 4186,
      "큰": 4187,
      "클": 4188,
      "큼": 4189,
      "큽": 4190,
      "큿": 4191,
      "킁": 4192,
      "킄": 4193,
      "킅": 4194,
      "킈": 4195,
      "키": 4196,
      "킥": 4197,
      "킨": 4198,
      "킬": 4199,
      "킴": 4200,
      "킵": 4201,
      "킷": 4202,
      "킹": 4203,
      "킼": 4204,
      "타": 4205,
      "탁": 4206,
      "탄": 4207,
      "탈": 4208,
      "탉": 4209,
      "탐": 4210,
      "탑": 4211,
      "탓": 4212,
      "탔": 4213,
      "탕": 4214,
      "태": 4215,
      "택": 4216,
      "탠": 4217,
      "탤": 4218,
      "탬": 4219,
      "탭": 4220,
      "탯": 4221,
      "탰": 4222,
      "탱": 4223,
      "탸": 4224,
      "터": 4225,
      "턱": 4226,
      "턴": 4227,
      "털": 4228,
      "텀": 4229,
      "텁": 4230,
      "텃": 4231,
      "텄": 4232,
      "텅": 4233,
      "텋": 4234,
      "테": 4235,
      "텍": 4236,
      "텐": 4237,
      "텔": 4238,
      "템": 4239,
      "텝": 4240,
      "텟": 4241,
      "텡": 4242,
      "텨": 4243,
      "텬": 4244,
      "텼": 4245,
      "톄": 4246,
      "톈": 4247,
      "토": 4248,
      "톡": 4249,
      "톤": 4250,
      "톨": 4251,
      "톰": 4252,
      "톱": 4253,
      "톳": 4254,
      "통": 4255,
      "톺": 4256,
      "톼": 4257,
      "퇄": 4258,
      "퇘": 4259,
      "퇫": 4260,
      "퇴": 4261,
      "툇": 4262,
      "툥": 4263,
      "투": 4264,
      "툭": 4265,
      "툰": 4266,
      "툴": 4267,
      "툼": 4268,
      "툽": 4269,
      "퉁": 4270,
      "퉈": 4271,
      "퉜": 4272,
      "퉤": 4273,
      "퉷": 4274,
      "퉸": 4275,
      "튀": 4276,
      "튄": 4277,
      "튈": 4278,
      "튐": 4279,
      "튓": 4280,
      "튕": 4281,
      "튜": 4282,
      "튠": 4283,
      "튤": 4284,
      "튬": 4285,
      "튭": 4286,
      "트": 4287,
      "특": 4288,
      "튼": 4289,
      "튿": 4290,
      "틀": 4291,
      "틈": 4292,
      "틉": 4293,
      "틋": 4294,
      "틍": 4295,
      "틑": 4296,
      "틔": 4297,
      "티": 4298,
      "틱": 4299,
      "틴": 4300,
      "틸": 4301,
      "팀": 4302,
      "팁": 4303,
      "팃": 4304,
      "팅": 4305,
      "파": 4306,
      "팍": 4307,
      "팎": 4308,
      "판": 4309,
      "팔": 4310,
      "팜": 4311,
      "팝": 4312,
      "팟": 4313,
      "팠": 4314,
      "팡": 4315,
      "팥": 4316,
      "패": 4317,
      "팩": 4318,
      "팬": 4319,
      "팰": 4320,
      "팸": 4321,
      "팹": 4322,
      "팻": 4323,
      "팼": 4324,
      "팽": 4325,
      "퍄": 4326,
      "퍅": 4327,
      "퍈": 4328,
      "퍠": 4329,
      "퍼": 4330,
      "퍽": 4331,
      "펀": 4332,
      "펄": 4333,
      "펌": 4334,
      "펍": 4335,
      "펏": 4336,
      "펐": 4337,
      "펑": 4338,
      "페": 4339,
      "펙": 4340,
      "펜": 4341,
      "펠": 4342,
      "펨": 4343,
      "펩": 4344,
      "펫": 4345,
      "펭": 4346,
      "펴": 4347,
      "편": 4348,
      "펼": 4349,
      "폄": 4350,
      "폈": 4351,
      "평": 4352,
      "폐": 4353,
      "포": 4354,
      "폭": 4355,
      "폰": 4356,
      "폴": 4357,
      "폼": 4358,
      "폿": 4359,
      "퐁": 4360,
      "퐈": 4361,
      "퐉": 4362,
      "퐐": 4363,
      "퐝": 4364,
      "푀": 4365,
      "표": 4366,
      "푠": 4367,
      "푯": 4368,
      "푸": 4369,
      "푹": 4370,
      "푼": 4371,
      "풀": 4372,
      "풂": 4373,
      "품": 4374,
      "풉": 4375,
      "풋": 4376,
      "풍": 4377,
      "퓌": 4378,
      "퓨": 4379,
      "퓰": 4380,
      "퓸": 4381,
      "프": 4382,
      "픈": 4383,
      "플": 4384,
      "픔": 4385,
      "픕": 4386,
      "피": 4387,
      "픽": 4388,
      "핀": 4389,
      "필": 4390,
      "핌": 4391,
      "핍": 4392,
      "핏": 4393,
      "핑": 4394,
      "하": 4395,
      "학": 4396,
      "한": 4397,
      "핝": 4398,
      "핟": 4399,
      "할": 4400,
      "핡": 4401,
      "핣": 4402,
      "핥": 4403,
      "핧": 4404,
      "함": 4405,
      "합": 4406,
      "핫": 4407,
      "핬": 4408,
      "항": 4409,
      "핮": 4410,
      "핰": 4411,
      "핱": 4412,
      "핳": 4413,
      "해": 4414,
      "핵": 4415,
      "핸": 4416,
      "핼": 4417,
      "햄": 4418,
      "햅": 4419,
      "햇": 4420,
      "했": 4421,
      "행": 4422,
      "햌": 4423,
      "햏": 4424,
      "햐": 4425,
      "햑": 4426,
      "햔": 4427,
      "햘": 4428,
      "햝": 4429,
      "햤": 4430,
      "향": 4431,
      "햬": 4432,
      "헀": 4433,
      "허": 4434,
      "헉": 4435,
      "헌": 4436,
      "헐": 4437,
      "험": 4438,
      "헙": 4439,
      "헛": 4440,
      "헝": 4441,
      "헠": 4442,
      "헣": 4443,
      "헤": 4444,
      "헥": 4445,
      "헨": 4446,
      "헬": 4447,
      "헴": 4448,
      "헵": 4449,
      "헷": 4450,
      "헸": 4451,
      "헹": 4452,
      "헿": 4453,
      "혀": 4454,
      "혁": 4455,
      "현": 4456,
      "혈": 4457,
      "혐": 4458,
      "협": 4459,
      "혓": 4460,
      "혔": 4461,
      "형": 4462,
      "혜": 4463,
      "호": 4464,
      "혹": 4465,
      "혼": 4466,
      "홀": 4467,
      "홈": 4468,
      "홉": 4469,
      "홋": 4470,
      "홍": 4471,
      "홑": 4472,
      "홓": 4473,
      "화": 4474,
      "확": 4475,
      "환": 4476,
      "활": 4477,
      "홥": 4478,
      "홧": 4479,
      "황": 4480,
      "홰": 4481,
      "홱": 4482,
      "횃": 4483,
      "회": 4484,
      "획": 4485,
      "횐": 4486,
      "횔": 4487,
      "횟": 4488,
      "횡": 4489,
      "효": 4490,
      "횬": 4491,
      "횽": 4492,
      "후": 4493,
      "훅": 4494,
      "훈": 4495,
      "훌": 4496,
      "훑": 4497,
      "훔": 4498,
      "훕": 4499,
      "훗": 4500,
      "훙": 4501,
      "훠": 4502,
      "훤": 4503,
      "훨": 4504,
      "훼": 4505,
      "훽": 4506,
      "휀": 4507,
      "휑": 4508,
      "휘": 4509,
      "휙": 4510,
      "휜": 4511,
      "휠": 4512,
      "휨": 4513,
      "휩": 4514,
      "휭": 4515,
      "휴": 4516,
      "휼": 4517,
      "흄": 4518,
      "흉": 4519,
      "흐": 4520,
      "흑": 4521,
      "흔": 4522,
      "흘": 4523,
      "흙": 4524,
      "흠": 4525,
      "흡": 4526,
      "흣": 4527,
      "흥": 4528,
      "흩": 4529,
      "흫": 4530,
      "희": 4531,
      "흰": 4532,
      "흴": 4533,
      "히": 4534,
      "힉": 4535,
      "힌": 4536,
      "힐": 4537,
      "힘": 4538,
      "힙": 4539,
      "힛": 4540,
      "힝": 4541,
      "힣": 4542,
      "車": 4543,
      "金": 4544,
      "羅": 4545,
      "樂": 4546,
      "亂": 4547,
      "來": 4548,
      "勞": 4549,
      "盧": 4550,
      "老": 4551,
      "魯": 4552,
      "論": 4553,
      "樂": 4554,
      "異": 4555,
      "復": 4556,
      "不": 4557,
      "沈": 4558,
      "兩": 4559,
      "梁": 4560,
      "良": 4561,
      "呂": 4562,
      "女": 4563,
      "歷": 4564,
      "年": 4565,
      "聯": 4566,
      "連": 4567,
      "列": 4568,
      "烈": 4569,
      "靈": 4570,
      "領": 4571,
      "例": 4572,
      "禮": 4573,
      "遼": 4574,
      "龍": 4575,
      "劉": 4576,
      "柳": 4577,
      "流": 4578,
      "留": 4579,
      "類": 4580,
      "六": 4581,
      "陸": 4582,
      "律": 4583,
      "利": 4584,
      "履": 4585,
      "易": 4586,
      "李": 4587,
      "理": 4588,
      "離": 4589,
      "林": 4590,
      "臨": 4591,
      "立": 4592,
      "狀": 4593,
      "茶": 4594,
      "宅": 4595,
      "︎": 4596,
      "️": 4597,
      "！": 4598,
      "＂": 4599,
      "＃": 4600,
      "＄": 4601,
      "％": 4602,
      "＆": 4603,
      "＇": 4604,
      "（": 4605,
      "）": 4606,
      "＊": 4607,
      "＋": 4608,
      "，": 4609,
      "－": 4610,
      "．": 4611,
      "／": 4612,
      "：": 4613,
      "；": 4614,
      "＜": 4615,
      "＝": 4616,
      "＞": 4617,
      "？": 4618,
      "［": 4619,
      "＼": 4620,
      "］": 4621,
      "＾": 4622,
      "＿": 4623,
      "｀": 4624,
      "ｇ": 4625,
      "ｍ": 4626,
      "ｔ": 4627,
      "｜": 4628,
      "～": 4629,
      "｡": 4630,
      "｢": 4631,
      "｣": 4632,
      "･": 4633,
      "￦": 4634,
      "𖤐": 4635,
      "🇨": 4636,
      "🇭": 4637,
      "🇯": 4638,
      "🇰": 4639,
      "🇳": 4640,
      "🇵": 4641,
      "🇷": 4642,
      "🇸": 4643,
      "🇹": 4644,
      "🇺": 4645,
      "🇼": 4646,
      "🌈": 4647,
      "🌊": 4648,
      "🌋": 4649,
      "🌙": 4650,
      "🌚": 4651,
      "🌛": 4652,
      "🌜": 4653,
      "🌝": 4654,
      "🌞": 4655,
      "🌟": 4656,
      "🌩": 4657,
      "🌱": 4658,
      "🌲": 4659,
      "🌳": 4660,
      "🌴": 4661,
      "🌶": 4662,
      "🌷": 4663,
      "🌸": 4664,
      "🌹": 4665,
      "🌺": 4666,
      "🌻": 4667,
      "🌼": 4668,
      "🌽": 4669,
      "🌿": 4670,
      "🍀": 4671,
      "🍁": 4672,
      "🍂": 4673,
      "🍃": 4674,
      "🍅": 4675,
      "🍆": 4676,
      "🍇": 4677,
      "🍉": 4678,
      "🍊": 4679,
      "🍋": 4680,
      "🍌": 4681,
      "🍎": 4682,
      "🍏": 4683,
      "🍑": 4684,
      "🍒": 4685,
      "🍓": 4686,
      "🍔": 4687,
      "🍕": 4688,
      "🍖": 4689,
      "🍗": 4690,
      "🍚": 4691,
      "🍜": 4692,
      "🍝": 4693,
      "🍞": 4694,
      "🍟": 4695,
      "🍠": 4696,
      "🍡": 4697,
      "🍣": 4698,
      "🍤": 4699,
      "🍦": 4700,
      "🍩": 4701,
      "🍪": 4702,
      "🍫": 4703,
      "🍭": 4704,
      "🍯": 4705,
      "🍰": 4706,
      "🍲": 4707,
      "🍳": 4708,
      "🍴": 4709,
      "🍵": 4710,
      "🍷": 4711,
      "🍺": 4712,
      "🍻": 4713,
      "🍼": 4714,
      "🍽": 4715,
      "🍾": 4716,
      "🎀": 4717,
      "🎁": 4718,
      "🎂": 4719,
      "🎃": 4720,
      "🎄": 4721,
      "🎅": 4722,
      "🎆": 4723,
      "🎈": 4724,
      "🎉": 4725,
      "🎊": 4726,
      "🎗": 4727,
      "🎤": 4728,
      "🎧": 4729,
      "🎬": 4730,
      "🎵": 4731,
      "🎶": 4732,
      "🎸": 4733,
      "🏃": 4734,
      "🏊": 4735,
      "🏠": 4736,
      "🏻": 4737,
      "🏼": 4738,
      "🏽": 4739,
      "🏾": 4740,
      "🏿": 4741,
      "🐀": 4742,
      "🐁": 4743,
      "🐂": 4744,
      "🐅": 4745,
      "🐈": 4746,
      "🐍": 4747,
      "🐎": 4748,
      "🐑": 4749,
      "🐒": 4750,
      "🐓": 4751,
      "🐔": 4752,
      "🐕": 4753,
      "🐖": 4754,
      "🐗": 4755,
      "🐙": 4756,
      "🐟": 4757,
      "🐣": 4758,
      "🐤": 4759,
      "🐥": 4760,
      "🐦": 4761,
      "🐩": 4762,
      "🐭": 4763,
      "🐮": 4764,
      "🐯": 4765,
      "🐰": 4766,
      "🐱": 4767,
      "🐴": 4768,
      "🐵": 4769,
      "🐶": 4770,
      "🐷": 4771,
      "🐸": 4772,
      "🐻": 4773,
      "🐽": 4774,
      "🐾": 4775,
      "👀": 4776,
      "👄": 4777,
      "👅": 4778,
      "👆": 4779,
      "👇": 4780,
      "👈": 4781,
      "👉": 4782,
      "👊": 4783,
      "👋": 4784,
      "👌": 4785,
      "👍": 4786,
      "👎": 4787,
      "👏": 4788,
      "👑": 4789,
      "👟": 4790,
      "👣": 4791,
      "👤": 4792,
      "👥": 4793,
      "👦": 4794,
      "👧": 4795,
      "👨": 4796,
      "👩": 4797,
      "👫": 4798,
      "👭": 4799,
      "👯": 4800,
      "👴": 4801,
      "👶": 4802,
      "👹": 4803,
      "👺": 4804,
      "👻": 4805,
      "👼": 4806,
      "👽": 4807,
      "👿": 4808,
      "💀": 4809,
      "💁": 4810,
      "💃": 4811,
      "💄": 4812,
      "💋": 4813,
      "💌": 4814,
      "💍": 4815,
      "💎": 4816,
      "💐": 4817,
      "💑": 4818,
      "💓": 4819,
      "💕": 4820,
      "💖": 4821,
      "💗": 4822,
      "💘": 4823,
      "💙": 4824,
      "💚": 4825,
      "💛": 4826,
      "💜": 4827,
      "💝": 4828,
      "💞": 4829,
      "💟": 4830,
      "💡": 4831,
      "💢": 4832,
      "💣": 4833,
      "💤": 4834,
      "💥": 4835,
      "💦": 4836,
      "💧": 4837,
      "💨": 4838,
      "💩": 4839,
      "💪": 4840,
      "💫": 4841,
      "💬": 4842,
      "💯": 4843,
      "💰": 4844,
      "💳": 4845,
      "💸": 4846,
      "📌": 4847,
      "📍": 4848,
      "📖": 4849,
      "📚": 4850,
      "📝": 4851,
      "📢": 4852,
      "📣": 4853,
      "📷": 4854,
      "📸": 4855,
      "📽": 4856,
      "🔊": 4857,
      "🔔": 4858,
      "🔖": 4859,
      "🔜": 4860,
      "🔞": 4861,
      "🔥": 4862,
      "🔨": 4863,
      "🔪": 4864,
      "🔫": 4865,
      "🔴": 4866,
      "🔵": 4867,
      "🔶": 4868,
      "🔸": 4869,
      "🔹": 4870,
      "🔺": 4871,
      "🕊": 4872,
      "🕯": 4873,
      "🕺": 4874,
      "🖐": 4875,
      "🖒": 4876,
      "🖕": 4877,
      "🖤": 4878,
      "🗡": 4879,
      "🗣": 4880,
      "😀": 4881,
      "😁": 4882,
      "😂": 4883,
      "😃": 4884,
      "😄": 4885,
      "😅": 4886,
      "😆": 4887,
      "😇": 4888,
      "😈": 4889,
      "😉": 4890,
      "😊": 4891,
      "😋": 4892,
      "😌": 4893,
      "😍": 4894,
      "😎": 4895,
      "😏": 4896,
      "😐": 4897,
      "😑": 4898,
      "😒": 4899,
      "😓": 4900,
      "😔": 4901,
      "😕": 4902,
      "😖": 4903,
      "😗": 4904,
      "😘": 4905,
      "😙": 4906,
      "😚": 4907,
      "😛": 4908,
      "😜": 4909,
      "😝": 4910,
      "😞": 4911,
      "😟": 4912,
      "😠": 4913,
      "😡": 4914,
      "😢": 4915,
      "😣": 4916,
      "😤": 4917,
      "😥": 4918,
      "😧": 4919,
      "😨": 4920,
      "😩": 4921,
      "😪": 4922,
      "😫": 4923,
      "😬": 4924,
      "😭": 4925,
      "😮": 4926,
      "😯": 4927,
      "😰": 4928,
      "😱": 4929,
      "😲": 4930,
      "😳": 4931,
      "😴": 4932,
      "😵": 4933,
      "😶": 4934,
      "😷": 4935,
      "😻": 4936,
      "😽": 4937,
      "🙀": 4938,
      "🙂": 4939,
      "🙃": 4940,
      "🙄": 4941,
      "🙅": 4942,
      "🙆": 4943,
      "🙇": 4944,
      "🙈": 4945,
      "🙉": 4946,
      "🙊": 4947,
      "🙋": 4948,
      "🙌": 4949,
      "🙏": 4950,
      "🚀": 4951,
      "🚗": 4952,
      "🚨": 4953,
      "🚩": 4954,
      "🚫": 4955,
      "🚴": 4956,
      "🛑": 4957,
      "🤐": 4958,
      "🤑": 4959,
      "🤓": 4960,
      "🤔": 4961,
      "🤗": 4962,
      "🤘": 4963,
      "🤟": 4964,
      "🤡": 4965,
      "🤢": 4966,
      "🤣": 4967,
      "🤤": 4968,
      "🤦": 4969,
      "🤧": 4970,
      "🤨": 4971,
      "🤩": 4972,
      "🤪": 4973,
      "🤫": 4974,
      "🤬": 4975,
      "🤭": 4976,
      "🤮": 4977,
      "🤯": 4978,
      "🤷": 4979,
      "🥄": 4980,
      "🥇": 4981,
      "🥊": 4982,
      "🥐": 4983,
      "🥑": 4984,
      "🥕": 4985,
      "🥖": 4986,
      "🥗": 4987,
      "🥛": 4988,
      "🥢": 4989,
      "🥰": 4990,
      "🥳": 4991,
      "🥶": 4992,
      "🥺": 4993,
      "🦀": 4994,
      "🦁": 4995,
      "🦅": 4996,
      "🦍": 4997,
      "🦐": 4998,
      "🦜": 4999,
      "🦶": 5000,
      "🧀": 5001,
      "🧐": 5002,
      "🧚": 5003,
      "🧡": 5004,
      "##년": 5005,
      "##버": 5006,
      "##림": 5007,
      "##속": 5008,
      "##지": 5009,
      "##켜": 5010,
      "##보": 5011,
      "##아": 5012,
      "##야": 5013,
      "##하": 5014,
      "##나": 5015,
      "##요": 5016,
      "##알": 5017,
      "##못": 5018,
      "##닭": 5019,
      "##이": 5020,
      "##냐": 5021,
      "##딩": 5022,
      "##좀": 5023,
      "##사": 5024,
      "##면": 5025,
      "##안": 5026,
      "##돼": 5027,
      "##합": 5028,
      "##원": 5029,
      "##뿐": 5030,
      "##었": 5031,
      "##습": 5032,
      "##니": 5033,
      "##다": 5034,
      "##개": 5035,
      "##피": 5036,
      "##는": 5037,
      "##국": 5038,
      "##노": 5039,
      "##래": 5040,
      "##자": 5041,
      "##랑": 5042,
      "##든": 5043,
      "##블": 5044,
      "##탕": 5045,
      "##판": 5046,
      "##학": 5047,
      "##과": 5048,
      "##출": 5049,
      "##석": 5050,
      "##에": 5051,
      "##게": 5052,
      "##객": 5053,
      "##복": 5054,
      "##장": 5055,
      "##런": 5056,
      "##것": 5057,
      "##들": 5058,
      "##ㅋ": 5059,
      "##세": 5060,
      "##회": 5061,
      "##화": 5062,
      "##신": 5063,
      "##비": 5064,
      "##용": 5065,
      "##동": 5066,
      "##해": 5067,
      "##죠": 5068,
      "##마": 5069,
      "##공": 5070,
      "##천": 5071,
      "##침": 5072,
      "##까": 5073,
      "##르": 5074,
      "##걸": 5075,
      "##어": 5076,
      "##능": 5077,
      "##력": 5078,
      "##검": 5079,
      "##정": 5080,
      "##시": 5081,
      "##험": 5082,
      "##중": 5083,
      "##은": 5084,
      "##착": 5085,
      "##을": 5086,
      "##가": 5087,
      "##고": 5088,
      "##탈": 5089,
      "##수": 5090,
      "##있": 5091,
      "##겠": 5092,
      "##포": 5093,
      "##건": 5094,
      "##청": 5095,
      "##셨": 5096,
      "##거": 5097,
      "##란": 5098,
      "##영": 5099,
      "##교": 5100,
      "##체": 5101,
      "##점": 5102,
      "##절": 5103,
      "##차": 5104,
      "##옆": 5105,
      "##네": 5106,
      "##악": 5107,
      "##범": 5108,
      "##도": 5109,
      "##닌": 5110,
      "##데": 5111,
      "##1": 5112,
      "##저": 5113,
      "##렸": 5114,
      "##음": 5115,
      "##파": 5116,
      "##리": 5117,
      "##서": 5118,
      "##웁": 5119,
      "##0": 5120,
      "##ｍ": 5121,
      "##상": 5122,
      "##무": 5123,
      "##느": 5124,
      "##님": 5125,
      "##반": 5126,
      "##만": 5127,
      "##라": 5128,
      "##친": 5129,
      "##머": 5130,
      "##글": 5131,
      "##락": 5132,
      "##율": 5133,
      "##팔": 5134,
      "##문": 5135,
      "##끼": 5136,
      "##려": 5137,
      "##억": 5138,
      "##스": 5139,
      "##령": 5140,
      "##더": 5141,
      "##금": 5142,
      "##불": 5143,
      "##업": 5144,
      "##진": 5145,
      "##행": 5146,
      "##되": 5147,
      "##산": 5148,
      "##∼": 5149,
      "##삼": 5150,
      "##성": 5151,
      "##구": 5152,
      "##간": 5153,
      "##프": 5154,
      "##링": 5155,
      "##트": 5156,
      "##레": 5157,
      "##닝": 5158,
      "##밖": 5159,
      "##연": 5160,
      "##일": 5161,
      "##균": 5162,
      "##카": 5163,
      "##한": 5164,
      "##디": 5165,
      "##여": 5166,
      "##기": 5167,
      "##역": 5168,
      "##페": 5169,
      "##헤": 5170,
      "##타": 5171,
      "##p": 5172,
      "##h": 5173,
      "##ó": 5174,
      "##n": 5175,
      "##팩": 5176,
      "##으": 5177,
      "##로": 5178,
      "##급": 5179,
      "##매": 5180,
      "##실": 5181,
      "##생": 5182,
      "##명": 5183,
      "##q": 5184,
      "##u": 5185,
      "##i": 5186,
      "##m": 5187,
      "##e": 5188,
      "##t": 5189,
      "##망": 5190,
      "##주": 5191,
      "##담": 5192,
      "##유": 5193,
      "##당": 5194,
      "##전": 5195,
      "##등": 5196,
      "##남": 5197,
      "##ㆍ": 5198,
      "##양": 5199,
      "##바": 5200,
      "##족": 5201,
      "##너": 5202,
      "##집": 5203,
      "##된": 5204,
      "##뿜": 5205,
      "##던": 5206,
      "##법": 5207,
      "##칠": 5208,
      "##없": 5209,
      "##록": 5210,
      "##대": 5211,
      "##소": 5212,
      "##작": 5213,
      "##놨": 5214,
      "##빨": 5215,
      "##갱": 5216,
      "##근": 5217,
      "##람": 5218,
      "##북": 5219,
      "##협": 5220,
      "##형": 5221,
      "##증": 5222,
      "##의": 5223,
      "##인": 5224,
      "##줄": 5225,
      "##말": 5226,
      "##임": 5227,
      "##충": 5228,
      "##잡": 5229,
      "##치": 5230,
      "##내": 5231,
      "##헌": 5232,
      "##찍": 5233,
      "##며": 5234,
      "##덕": 5235,
      "##됨": 5236,
      "##2": 5237,
      "##4": 5238,
      "##살": 5239,
      "##얼": 5240,
      "##🦜": 5241,
      "##선": 5242,
      "##감": 5243,
      "##단": 5244,
      "##육": 5245,
      "##흙": 5246,
      "##됩": 5247,
      "##액": 5248,
      "##갔": 5249,
      "##쓰": 5250,
      "##재": 5251,
      "##따": 5252,
      "##운": 5253,
      "##봐": 5254,
      "##큼": 5255,
      "##품": 5256,
      "##예": 5257,
      "##식": 5258,
      "##물": 5259,
      "##코": 5260,
      "##쿠": 5261,
      "##폰": 5262,
      "##쳤": 5263,
      "##략": 5264,
      "##패": 5265,
      "##러": 5266,
      "##않": 5267,
      "##른": 5268,
      "##모": 5269,
      "##춘": 5270,
      "##특": 5271,
      "##별": 5272,
      "##위": 5273,
      "##겨": 5274,
      "##와": 5275,
      "##토": 5276,
      "##허": 5277,
      "##놓": 5278,
      "##씨": 5279,
      "##발": 5280,
      "##미": 5281,
      "##술": 5282,
      "##창": 5283,
      "##튜": 5284,
      "##오": 5285,
      "##극": 5286,
      "##9": 5287,
      "##같": 5288,
      "##그": 5289,
      "##긴": 5290,
      "##울": 5291,
      "##막": 5292,
      "##애": 5293,
      "##관": 5294,
      "##할": 5295,
      "##민": 5296,
      "##릇": 5297,
      "##각": 5298,
      "##징": 5299,
      "##경": 5300,
      "##w": 5301,
      "##l": 5302,
      "##를": 5303,
      "##변": 5304,
      "##잘": 5305,
      "##적": 5306,
      "##커": 5307,
      "##넝": 5308,
      "##꼴": 5309,
      "##부": 5310,
      "##터": 5311,
      "##책": 5312,
      "##낙": 5313,
      "##ㅊ": 5314,
      "##히": 5315,
      "##통": 5316,
      "##렁": 5317,
      "##ㅇ": 5318,
      "##ㄱ": 5319,
      "##될": 5320,
      "##듯": 5321,
      "##접": 5322,
      "##앙": 5323,
      "##ㅈ": 5324,
      "##ㄴ": 5325,
      "##싫": 5326,
      "##릅": 5327,
      "##쟈": 5328,
      "##앞": 5329,
      "##분": 5330,
      "##빌": 5331,
      "##했": 5332,
      "##조": 5333,
      "##맛": 5334,
      "##호": 5335,
      "##브": 5336,
      "##크": 5337,
      "##낸": 5338,
      "##새": 5339,
      "##우": 5340,
      "##봤": 5341,
      "##희": 5342,
      "##읍": 5343,
      "##😬": 5344,
      "##입": 5345,
      "##송": 5346,
      "##a": 5347,
      "##c": 5348,
      "##권": 5349,
      "##밴": 5350,
      "##드": 5351,
      "##길": 5352,
      "##왜": 5353,
      "##왔": 5354,
      "##취": 5355,
      "##맞": 5356,
      "##3": 5357,
      "##㎡": 5358,
      "##혈": 5359,
      "##펀": 5360,
      "##제": 5361,
      "##P": 5362,
      "##K": 5363,
      "##O": 5364,
      "##틀": 5365,
      "##맨": 5366,
      "##십": 5367,
      "##써": 5368,
      "##융": 5369,
      "##층": 5370,
      "##잇": 5371,
      "##롸": 5372,
      "##린": 5373,
      "##붕": 5374,
      "##혹": 5375,
      "##때": 5376,
      "##량": 5377,
      "##텐": 5378,
      "##션": 5379,
      "##엽": 5380,
      "##g": 5381,
      "##r": 5382,
      "##결": 5383,
      "##준": 5384,
      "##계": 5385,
      "##론": 5386,
      "##본": 5387,
      "##답": 5388,
      "##평": 5389,
      "##6": 5390,
      "##꾼": 5391,
      "##짓": 5392,
      "##왕": 5393,
      "##o": 5394,
      "##s": 5395,
      "##값": 5396,
      "##됐": 5397,
      "##죄": 5398,
      "##찜": 5399,
      "##녜": 5400,
      "##땨": 5401,
      "##x": 5402,
      "##활": 5403,
      "##냥": 5404,
      "##병": 5405,
      "##엔": 5406,
      "##컨": 5407,
      "##설": 5408,
      "##팅": 5409,
      "##견": 5410,
      "##밥": 5411,
      "##난": 5412,
      "##뿌": 5413,
      "##잔": 5414,
      "##싸": 5415,
      "##움": 5416,
      "##돌": 5417,
      "##놈": 5418,
      "##날": 5419,
      "##딸": 5420,
      "##푼": 5421,
      "##죽": 5422,
      "##갈": 5423,
      "##또": 5424,
      "##쓸": 5425,
      "##턴": 5426,
      "##환": 5427,
      "##압": 5428,
      "##8": 5429,
      "##릴": 5430,
      "##였": 5431,
      "##캠": 5432,
      "##핑": 5433,
      "##댈": 5434,
      "##잭": 5435,
      "##늘": 5436,
      "##워": 5437,
      "##놧": 5438,
      "##찰": 5439,
      "##총": 5440,
      "##테": 5441,
      "##🌟": 5442,
      "##ッ": 5443,
      "##キ": 5444,
      "##ー": 5445,
      "##납": 5446,
      "##b": 5447,
      "##표": 5448,
      "##현": 5449,
      "##직": 5450,
      "##굴": 5451,
      "##붓": 5452,
      "##빼": 5453,
      "##백": 5454,
      "##투": 5455,
      "##메": 5456,
      "##편": 5457,
      "##햇": 5458,
      "##센": 5459,
      "##퍼": 5460,
      "##항": 5461,
      "##😠": 5462,
      "##심": 5463,
      "##박": 5464,
      "##혜": 5465,
      "##염": 5466,
      "##태": 5467,
      "##베": 5468,
      "##갖": 5469,
      "##았": 5470,
      "##강": 5471,
      "##ㄹ": 5472,
      "##꼬": 5473,
      "##큐": 5474,
      "##벼": 5475,
      "##껄": 5476,
      "##먹": 5477,
      "##맘": 5478,
      "##봉": 5479,
      "##빵": 5480,
      "##째": 5481,
      "##💕": 5482,
      "##싶": 5483,
      "##빠": 5484,
      "##섬": 5485,
      "##완": 5486,
      "##끄": 5487,
      "##럽": 5488,
      "##깨": 5489,
      "##퇴": 5490,
      "##ㅉ": 5491,
      "##잠": 5492,
      "##달": 5493,
      "##롱": 5494,
      "##빛": 5495,
      "##엇": 5496,
      "##례": 5497,
      "##참": 5498,
      "##루": 5499,
      "##목": 5500,
      "##촌": 5501,
      "##녀": 5502,
      "##섭": 5503,
      "##초": 5504,
      "##종": 5505,
      "##댄": 5506,
      "##췬": 5507,
      "##텔": 5508,
      "##릭": 5509,
      "##키": 5510,
      "##5": 5511,
      "##많": 5512,
      "##귀": 5513,
      "##군": 5514,
      "##잖": 5515,
      "##댁": 5516,
      "##넘": 5517,
      "##배": 5518,
      "##놀": 5519,
      "##텅": 5520,
      "##방": 5521,
      "##v": 5522,
      "##짐": 5523,
      "##벌": 5524,
      "##벤": 5525,
      "##처": 5526,
      "##딱": 5527,
      "##귄": 5528,
      "##냄": 5529,
      "##씬": 5530,
      "##풍": 5531,
      "##꺼": 5532,
      "##쏟": 5533,
      "##두": 5534,
      "##닦": 5535,
      "##7": 5536,
      "##외": 5537,
      "##언": 5538,
      "##쪽": 5539,
      "##쁜": 5540,
      "##멘": 5541,
      "##약": 5542,
      "##누": 5543,
      "##격": 5544,
      "##톤": 5545,
      "##료": 5546,
      "##후": 5547,
      "##깐": 5548,
      "##앵": 5549,
      "##질": 5550,
      "##츠": 5551,
      "##덤": 5552,
      "##딧": 5553,
      "##념": 5554,
      "##쎄": 5555,
      "##쁠": 5556,
      "##쇼": 5557,
      "##탄": 5558,
      "##빈": 5559,
      "##넹": 5560,
      "##팀": 5561,
      "##렌": 5562,
      "##번": 5563,
      "##B": 5564,
      "##C": 5565,
      "##괴": 5566,
      "##쪄": 5567,
      "##V": 5568,
      "##쯤": 5569,
      "##뜯": 5570,
      "##핵": 5571,
      "##쏴": 5572,
      "##┃": 5573,
      "##색": 5574,
      "##렀": 5575,
      "##낭": 5576,
      "##럼": 5577,
      "##께": 5578,
      "##깉": 5579,
      "##겄": 5580,
      "##곶": 5581,
      "##광": 5582,
      "##힘": 5583,
      "##황": 5584,
      "##뭇": 5585,
      "##티": 5586,
      "##률": 5587,
      "##렴": 5588,
      "##추": 5589,
      "##및": 5590,
      "##엘": 5591,
      "##확": 5592,
      "##규": 5593,
      "##올": 5594,
      "##끊": 5595,
      "##골": 5596,
      "##똥": 5597,
      "##곳": 5598,
      "##낼": 5599,
      "##련": 5600,
      "##💦": 5601,
      "##꾸": 5602,
      "##멍": 5603,
      "##앤": 5604,
      "##먼": 5605,
      "##폭": 5606,
      "##걱": 5607,
      "##k": 5608,
      "##풀": 5609,
      "##떠": 5610,
      "##밟": 5611,
      "##축": 5612,
      "##승": 5613,
      "##뇨": 5614,
      "##옥": 5615,
      "##쫓": 5616,
      "##돈": 5617,
      "##즘": 5618,
      "##짜": 5619,
      "##켓": 5620,
      "##팡": 5621,
      "##👍": 5622,
      "##🏻": 5623,
      "##😘": 5624,
      "##썬": 5625,
      "##삐": 5626,
      "##봄": 5627,
      "##얘": 5628,
      "##털": 5629,
      "##익": 5630,
      "##윤": 5631,
      "##맴": 5632,
      "##😆": 5633,
      "##탓": 5634,
      "##닐": 5635,
      "##켰": 5636,
      "##T": 5637,
      "##삭": 5638,
      "##쿄": 5639,
      "##룡": 5640,
      "##웟": 5641,
      "##쳐": 5642,
      "##척": 5643,
      "##룰": 5644,
      "##j": 5645,
      "##렬": 5646,
      "##쇅": 5647,
      "##퀴": 5648,
      "##밀": 5649,
      "##곡": 5650,
      "##짝": 5651,
      "##좌": 5652,
      "##뇌": 5653,
      "##덜": 5654,
      "##롯": 5655,
      "##ㅎ": 5656,
      "##최": 5657,
      "##월": 5658,
      "##㏊": 5659,
      "##헬": 5660,
      "##닥": 5661,
      "##썩": 5662,
      "##순": 5663,
      "##릉": 5664,
      "##벽": 5665,
      "##봣": 5666,
      "##칙": 5667,
      "##ｔ": 5668,
      "##🍆": 5669,
      "##A": 5670,
      "##온": 5671,
      "##줘": 5672,
      "##류": 5673,
      "##벅": 5674,
      "##숸": 5675,
      "##홀": 5676,
      "##랜": 5677,
      "##손": 5678,
      "##욕": 5679,
      "##F": 5680,
      "##I": 5681,
      "##D": 5682,
      "##ㅠ": 5683,
      "##ㅜ": 5684,
      "##닷": 5685,
      "##컴": 5686,
      "##푸": 5687,
      "##열": 5688,
      "##껍": 5689,
      "##싹": 5690,
      "##🇳": 5691,
      "##🇨": 5692,
      "##🔨": 5693,
      "##🖕": 5694,
      "##찬": 5695,
      "##즁": 5696,
      "##졌": 5697,
      "##갑": 5698,
      "##즈": 5699,
      "##혼": 5700,
      "##져": 5701,
      "##픈": 5702,
      "##쌍": 5703,
      "##R": 5704,
      "##숭": 5705,
      "##함": 5706,
      "##템": 5707,
      "##짱": 5708,
      "##G": 5709,
      "##곤": 5710,
      "##숨": 5711,
      "##랴": 5712,
      "##H": 5713,
      "##E": 5714,
      "##＞": 5715,
      "##＜": 5716,
      "##L": 5717,
      "##─": 5718,
      "##측": 5719,
      "##헛": 5720,
      "##젼": 5721,
      "##랙": 5722,
      "##d": 5723,
      "##뭐": 5724,
      "##몰": 5725,
      "##줫": 5726,
      "##셧": 5727,
      "##깅": 5728,
      "##즐": 5729,
      "##웠": 5730,
      "##멋": 5731,
      "##득": 5732,
      "##채": 5733,
      "##쟁": 5734,
      "##넣": 5735,
      "##뻥": 5736,
      "##긋": 5737,
      "##봇": 5738,
      "##쉬": 5739,
      "##f": 5740,
      "##눌": 5741,
      "##얹": 5742,
      "##냈": 5743,
      "##캐": 5744,
      "##슴": 5745,
      "##륙": 5746,
      "##킹": 5747,
      "##농": 5748,
      "##싱": 5749,
      "##필": 5750,
      "##S": 5751,
      "##M": 5752,
      "##눈": 5753,
      "##플": 5754,
      "##뺄": 5755,
      "##괄": 5756,
      "##겝": 5757,
      "##받": 5758,
      "##홍": 5759,
      "##끝": 5760,
      "##높": 5761,
      "##논": 5762,
      "##똑": 5763,
      "##왈": 5764,
      "##잼": 5765,
      "##립": 5766,
      "##겹": 5767,
      "##뚜": 5768,
      "##흐": 5769,
      "##W": 5770,
      "##김": 5771,
      "##슨": 5772,
      "##쩌": 5773,
      "##혀": 5774,
      "##N": 5775,
      "##웃": 5776,
      "##둬": 5777,
      "##름": 5778,
      "##웅": 5779,
      "##칼": 5780,
      "##♥": 5781,
      "##️": 5782,
      "##ㅅ": 5783,
      "##쉽": 5784,
      "##킨": 5785,
      "##랄": 5786,
      "##춰": 5787,
      "##럭": 5788,
      "##므": 5789,
      "##ㅌ": 5790,
      "##숙": 5791,
      "##빙": 5792,
      "##짖": 5793,
      "##씩": 5794,
      "##뽑": 5795,
      "##묵": 5796,
      "##땅": 5797,
      "##땐": 5798,
      "##쩔": 5799,
      "##옵": 5800,
      "##힙": 5801,
      "##튀": 5802,
      "##슈": 5803,
      "##젙": 5804,
      "##홈": 5805,
      "##욤": 5806,
      "##앉": 5807,
      "##랐": 5808,
      "##Ⅰ": 5809,
      "##뜨": 5810,
      "##꽈": 5811,
      "##댕": 5812,
      "##왓": 5813,
      "##슬": 5814,
      "##눙": 5815,
      "##렐": 5816,
      "##겁": 5817,
      "##Z": 5818,
      "##놯": 5819,
      "##졋": 5820,
      "##촬": 5821,
      "##멜": 5822,
      "##픽": 5823,
      "##쨋": 5824,
      "##줬": 5825,
      "##늠": 5826,
      "##꿈": 5827,
      "##렛": 5828,
      "##팟": 5829,
      "##걷": 5830,
      "##핏": 5831,
      "##존": 5832,
      "##엄": 5833,
      "##녁": 5834,
      "##츄": 5835,
      "##맙": 5836,
      "##ア": 5837,
      "##リ": 5838,
      "##ト": 5839,
      "##ウ": 5840,
      "##≫": 5841,
      "##첩": 5842,
      "##륵": 5843,
      "##ㅣ": 5844,
      "##묶": 5845,
      "##몇": 5846,
      "##뭔": 5847,
      "##봬": 5848,
      "##뀌": 5849,
      "##쥐": 5850,
      "##섹": 5851,
      "##컸": 5852,
      "##껀": 5853,
      "##꽂": 5854,
      "##칭": 5855,
      "##혁": 5856,
      "##룹": 5857,
      "##쇠": 5858,
      "##램": 5859,
      "##클": 5860,
      "##넌": 5861,
      "##ㄲ": 5862,
      "##→": 5863,
      "##잦": 5864,
      "##븍": 5865,
      "##맹": 5866,
      "##톡": 5867,
      "##앰": 5868,
      "##X": 5869,
      "##웨": 5870,
      "##뉴": 5871,
      "##듀": 5872,
      "##택": 5873,
      "##겟": 5874,
      "##튐": 5875,
      "##향": 5876,
      "##졸": 5877,
      "##펌": 5878,
      "##²": 5879,
      "##넷": 5880,
      "##낄": 5881,
      "##랬": 5882,
      "##독": 5883,
      "##쎠": 5884,
      "##U": 5885,
      "##툼": 5886,
      "##낌": 5887,
      "##굵": 5888,
      "##좋": 5889,
      "##깜": 5890,
      "##씌": 5891,
      "##철": 5892,
      "##솔": 5893,
      "##짇": 5894,
      "##옌": 5895,
      "##잉": 5896,
      "##삿": 5897,
      "##㎢": 5898,
      "##쏜": 5899,
      "##촉": 5900,
      "##얌": 5901,
      "##폐": 5902,
      "##콘": 5903,
      "##쿵": 5904,
      "##뷔": 5905,
      "##꼰": 5906,
      "##앗": 5907,
      "##컹": 5908,
      "##댓": 5909,
      "##뮤": 5910,
      "##케": 5911,
      "##몽": 5912,
      "##옷": 5913,
      "##쿨": 5914,
      "##헣": 5915,
      "##렇": 5916,
      "##찌": 5917,
      "##ㄷ": 5918,
      "##꼽": 5919,
      "##흘": 5920,
      "##럿": 5921,
      "##궁": 5922,
      "##빔": 5923,
      "##읽": 5924,
      "##힌": 5925,
      "##응": 5926,
      "##붐": 5927,
      "##뎃": 5928,
      "##떨": 5929,
      "##▶": 5930,
      "##훈": 5931,
      "##㎝": 5932,
      "##춤": 5933,
      "##쑨": 5934,
      "##뽕": 5935,
      "##떻": 5936,
      "##у": 5937,
      "##з": 5938,
      "##а": 5939,
      "##떴": 5940,
      "##볼": 5941,
      "##룩": 5942,
      "##둔": 5943,
      "##믹": 5944,
      "##욬": 5945,
      "##꽃": 5946,
      "##닼": 5947,
      "##○": 5948,
      "##뱃": 5949,
      "##짬": 5950,
      "##콜": 5951,
      "##퓨": 5952,
      "##깝": 5953,
      "##엠": 5954,
      "##μ": 5955,
      "##맥": 5956,
      "##🔴": 5957,
      "##뷰": 5958,
      "##쏙": 5959,
      "##밸": 5960,
      "##겅": 5961,
      "##땜": 5962,
      "##냅": 5963,
      "##깽": 5964,
      "##웹": 5965,
      "##툴": 5966,
      "##델": 5967,
      "##뢰": 5968,
      "##컵": 5969,
      "##둥": 5970,
      "##냨": 5971,
      "##둑": 5972,
      "##쇆": 5973,
      "##눠": 5974,
      "##멸": 5975,
      "##뎅": 5976,
      "##꺄": 5977,
      "##깡": 5978,
      "##핱": 5979,
      "##셔": 5980,
      "##널": 5981,
      "##떡": 5982,
      "##렉": 5983,
      "##y": 5984,
      "##찾": 5985,
      "##흥": 5986,
      "##휴": 5987,
      "##밤": 5988,
      "##랍": 5989,
      "##뒀": 5990,
      "##´": 5991,
      "##캤": 5992,
      "##쑈": 5993,
      "##껏": 5994,
      "##닠": 5995,
      "##녕": 5996,
      "##벨": 5997,
      "##획": 5998,
      "##텍": 5999,
      "##㎿": 6000,
      "##겐": 6001,
      "##쳣": 6002,
      "##🌿": 6003,
      "##💚": 6004,
      "##퓰": 6005,
      "##딴": 6006,
      "##좃": 6007,
      "##룸": 6008,
      "##🐾": 6009,
      "##긍": 6010,
      "##깃": 6011,
      "##😪": 6012,
      "##옴": 6013,
      "##졎": 6014,
      "##암": 6015,
      "##랩": 6016,
      "##효": 6017,
      "##뜸": 6018,
      "##윗": 6019,
      "##얏": 6020,
      "##넓": 6021,
      "##혐": 6022,
      "##팬": 6023,
      "##폴": 6024,
      "##😊": 6025,
      "##묘": 6026,
      "##쇄": 6027,
      "##옹": 6028,
      "##첨": 6029,
      "##릿": 6030,
      "##탱": 6031,
      "##랭": 6032,
      "##킷": 6033,
      "##₂": 6034,
      "##흡": 6035,
      "##🙏": 6036,
      "##😭": 6037,
      "##샤": 6038,
      "##J": 6039,
      "##됬": 6040,
      "##돠": 6041,
      "##믄": 6042,
      "##둘": 6043,
      "##긔": 6044,
      "##〓": 6045,
      "##셈": 6046,
      "##ㅁ": 6047,
      "##뤄": 6048,
      "##렵": 6049,
      "##궤": 6050,
      "##😍": 6051,
      "##🔊": 6052,
      "##퀸": 6053,
      "##럴": 6054,
      "##눔": 6055,
      "##z": 6056,
      "##륨": 6057,
      "##끠": 6058,
      "##튼": 6059,
      "##옛": 6060,
      "##삥": 6061,
      "##듣": 6062,
      "##딨": 6063,
      "##탐": 6064,
      "##낮": 6065,
      "##ㅡ": 6066,
      "##🥰": 6067,
      "##잎": 6068,
      "##❣": 6069,
      "##쌉": 6070,
      "##엿": 6071,
      "##꿔": 6072,
      "##핼": 6073,
      "##뼈": 6074,
      "##넨": 6075,
      "##뒤": 6076,
      "##쁘": 6077,
      "##큰": 6078,
      "##놔": 6079,
      "##찐": 6080,
      "##떼": 6081,
      "##빤": 6082,
      "##좝": 6083,
      "##덟": 6084,
      "##셰": 6085,
      "##☺": 6086,
      "##뭘": 6087,
      "##젠": 6088,
      "##댔": 6089,
      "##쌓": 6090,
      "##뇬": 6091,
      "##뒹": 6092,
      "##셋": 6093,
      "##났": 6094,
      "##윈": 6095,
      "##녹": 6096,
      "##틴": 6097,
      "##숩": 6098,
      "##🤮": 6099,
      "##🤣": 6100,
      "##셐": 6101,
      "##콧": 6102,
      "##낫": 6103,
      "##젤": 6104,
      "##닮": 6105,
      "##＝": 6106,
      "##ᆞ": 6107,
      "##풋": 6108,
      "##덱": 6109,
      "##흔": 6110,
      "##뻔": 6111,
      "##롭": 6112,
      "##뚱": 6113,
      "##뺏": 6114,
      "##쏠": 6115,
      "##👏": 6116,
      "##몬": 6117,
      "##끗": 6118,
      "##쌀": 6119,
      "##횔": 6120,
      "##윳": 6121,
      "##덥": 6122,
      "##뜻": 6123,
      "##칸": 6124,
      "##펙": 6125,
      "##돤": 6126,
      "##샏": 6127,
      "##ㅂ": 6128,
      "##겪": 6129,
      "##콩": 6130,
      "##잌": 6131,
      "##밭": 6132,
      "##얻": 6133,
      "##휘": 6134,
      "##햄": 6135,
      "##낀": 6136,
      "##탁": 6137,
      "##씀": 6138,
      "##끌": 6139,
      "##혔": 6140,
      "##쉐": 6141,
      "##앜": 6142,
      "##킬": 6143,
      "##첫": 6144,
      "##룬": 6145,
      "##볍": 6146,
      "##틸": 6147,
      "##띠": 6148,
      "##싀": 6149,
      "##붙": 6150,
      "##덩": 6151,
      "##텀": 6152,
      "##됏": 6153,
      "##롤": 6154,
      "##횟": 6155,
      "##냇": 6156,
      "##끈": 6157,
      "##봅": 6158,
      "##쒸": 6159,
      "##😎": 6160,
      "##꼇": 6161,
      "##💸": 6162,
      "##홧": 6163,
      "##빚": 6164,
      "##컷": 6165,
      "##쌈": 6166,
      "##헉": 6167,
      "##흑": 6168,
      "##퍽": 6169,
      "##짭": 6170,
      "##찹": 6171,
      "##궈": 6172,
      "##💙": 6173,
      "##겸": 6174,
      "##깔": 6175,
      "##뭉": 6176,
      "##😳": 6177,
      "##쉼": 6178,
      "##웍": 6179,
      "##톱": 6180,
      "##벳": 6181,
      "##걍": 6182,
      "##겈": 6183,
      "##켄": 6184,
      "##😥": 6185,
      "##쟎": 6186,
      "##닉": 6187,
      "##밑": 6188,
      "##돕": 6189,
      "##덴": 6190,
      "##겼": 6191,
      "##쩡": 6192,
      "##떤": 6193,
      "##굿": 6194,
      "##😵": 6195,
      "##맣": 6196,
      "##갓": 6197,
      "##꽁": 6198,
      "##벗": 6199,
      "##맠": 6200,
      "##㎞": 6201,
      "##랖": 6202,
      "##밍": 6203,
      "##Q": 6204,
      "##👻": 6205,
      "##셀": 6206,
      "##돋": 6207,
      "##궃": 6208,
      "##꼼": 6209,
      "##갰": 6210,
      "##뿔": 6211,
      "##🐴": 6212,
      "##팜": 6213,
      "##횡": 6214,
      "##깰": 6215,
      "##곰": 6216,
      "##슷": 6217,
      "##밋": 6218,
      "##짠": 6219,
      "##됀": 6220,
      "##듬": 6221,
      "##닿": 6222,
      "##쒜": 6223,
      "##욀": 6224,
      "##깤": 6225,
      "##ㅍ": 6226,
      "##캘": 6227,
      "##💌": 6228,
      "##킈": 6229,
      "##쁩": 6230,
      "##콤": 6231,
      "##칩": 6232,
      "##곗": 6233,
      "##륜": 6234,
      "##㎜": 6235,
      "##슙": 6236,
      "##맡": 6237,
      "##싼": 6238,
      "##몀": 6239,
      "##갤": 6240,
      "##줌": 6241,
      "##뛰": 6242,
      "##몈": 6243,
      "##펠": 6244,
      "##샌": 6245,
      "##킥": 6246,
      "##챙": 6247,
      "##겻": 6248,
      "##샊": 6249,
      "##렙": 6250,
      "##짤": 6251,
      "##곽": 6252,
      "##멀": 6253,
      "##륭": 6254,
      "##뱅": 6255,
      "##줍": 6256,
      "##맀": 6257,
      "##끔": 6258,
      "##켐": 6259,
      "##늙": 6260,
      "##쉑": 6261,
      "##Y": 6262,
      "##쩝": 6263,
      "##ㅗ": 6264,
      "##펜": 6265,
      "##숲": 6266,
      "##샘": 6267,
      "##핸": 6268,
      "##낳": 6269,
      "##😑": 6270,
      "##캬": 6271,
      "##빅": 6272,
      "##괘": 6273,
      "##촛": 6274,
      "##빰": 6275,
      "##켔": 6276,
      "##퉁": 6277,
      "##떄": 6278,
      "##챡": 6279,
      "##툰": 6280,
      "##솟": 6281,
      "##н": 6282,
      "##и": 6283,
      "##м": 6284,
      "##섀": 6285,
      "##🙆": 6286,
      "##♀": 6287,
      "##컬": 6288,
      "##댱": 6289,
      "##🙋": 6290,
      "##뚫": 6291,
      "##옐": 6292,
      "##챤": 6293,
      "##🌈": 6294,
      "##겜": 6295,
      "##쟝": 6296,
      "##쑵": 6297,
      "##틱": 6298,
      "##땝": 6299,
      "##샷": 6300,
      "##욘": 6301,
      "##듭": 6302,
      "##🙄": 6303,
      "##탑": 6304,
      "##찔": 6305,
      "##뚝": 6306,
      "##즌": 6307,
      "##힐": 6308,
      "##닫": 6309,
      "##│": 6310,
      "##랫": 6311,
      "##훼": 6312,
      "##흉": 6313,
      "##랰": 6314,
      "##킴": 6315,
      "##덮": 6316,
      "##헝": 6317,
      "##～": 6318,
      "##넵": 6319,
      "##밷": 6320,
      "##찼": 6321,
      "##삽": 6322,
      "##섞": 6323,
      "##💛": 6324,
      "##👶": 6325,
      "##삶": 6326,
      "##텃": 6327,
      "##넴": 6328,
      "##훌": 6329,
      "##슉": 6330,
      "##펩": 6331,
      "##팝": 6332,
      "##늄": 6333,
      "##ᴬ": 6334,
      "##ᴼ": 6335,
      "##젝": 6336,
      "##딜": 6337,
      "##👫": 6338,
      "##❤": 6339,
      "##냉": 6340,
      "##잽": 6341,
      "##핀": 6342,
      "##쥬": 6343,
      "##샵": 6344,
      "##읏": 6345,
      "##얗": 6346,
      "##퉤": 6347,
      "##썼": 6348,
      "##눕": 6349,
      "##엉": 6350,
      "##슘": 6351,
      "##뎈": 6352,
      "##쾌": 6353,
      "##믈": 6354,
      "##헷": 6355,
      "##😝": 6356,
      "##늦": 6357,
      "##꿉": 6358,
      "##×": 6359,
      "##빡": 6360,
      "##엑": 6361,
      "##벙": 6362,
      "##캅": 6363,
      "##엎": 6364,
      "##🍌": 6365,
      "##🌸": 6366,
      "##⭐": 6367,
      "##뵈": 6368,
      "##꼭": 6369,
      "##볶": 6370,
      "##✨": 6371,
      "##🍋": 6372,
      "##🔥": 6373,
      "##짘": 6374,
      "##굣": 6375,
      "##펑": 6376,
      "##냔": 6377,
      "##㎥": 6378,
      "##괸": 6379,
      "##긁": 6380,
      "##몸": 6381,
      "##툽": 6382,
      "##쏘": 6383,
      "##쌤": 6384,
      "##갉": 6385,
      "##늉": 6386,
      "##둠": 6387,
      "##넬": 6388,
      "##↑": 6389,
      "##숫": 6390,
      "##탠": 6391,
      "##딘": 6392,
      "##잋": 6393,
      "##벚": 6394,
      "##뽀": 6395,
      "##졍": 6396,
      "##껴": 6397,
      "##캔": 6398,
      "##곸": 6399,
      "##톰": 6400,
      "##셉": 6401,
      "##빕": 6402,
      "##팸": 6403,
      "##듷": 6404,
      "##✌": 6405,
      "##😏": 6406,
      "##젓": 6407,
      "##딥": 6408,
      "##땡": 6409,
      "##쩍": 6410,
      "##롬": 6411,
      "##냬": 6412,
      "##닙": 6413,
      "##ン": 6414,
      "##ド": 6415,
      "##ブ": 6416,
      "##ク": 6417,
      "##밬": 6418,
      "##쁨": 6419,
      "##🧡": 6420,
      "##숍": 6421,
      "##😤": 6422,
      "##꿏": 6423,
      "##🇵": 6424,
      "##＋": 6425,
      "##욯": 6426,
      "##렘": 6427,
      "##폼": 6428,
      "##욱": 6429,
      "##쌰": 6430,
      "##쫌": 6431,
      "##꺠": 6432,
      "##뮨": 6433,
      "##뮈": 6434,
      "##˚": 6435,
      "##왼": 6436,
      "##얀": 6437,
      "##펼": 6438,
      "##꼈": 6439,
      "##찮": 6440,
      "##셜": 6441,
      "##😂": 6442,
      "##늬": 6443,
      "##쿤": 6444,
      "##뻐": 6445,
      "##샬": 6446,
      "##쓴": 6447,
      "##㈜": 6448,
      "##곧": 6449,
      "##넜": 6450,
      "##🏿": 6451,
      "##👩": 6452,
      "##딛": 6453,
      "##뒷": 6454,
      "##씹": 6455,
      "##쨍": 6456,
      "##ㅏ": 6457,
      "##껭": 6458,
      "##뒈": 6459,
      "##닺": 6460,
      "##걘": 6461,
      "##퀘": 6462,
      "##듈": 6463,
      "##뜩": 6464,
      "##갸": 6465,
      "##첸": 6466,
      "##쌖": 6467,
      "##😇": 6468,
      "##ㅆ": 6469,
      "##즙": 6470,
      "##😃": 6471,
      "##넉": 6472,
      "##👹": 6473,
      "##팥": 6474,
      "##굉": 6475,
      "##븐": 6476,
      "##뉸": 6477,
      "##샐": 6478,
      "##탤": 6479,
      "##떵": 6480,
      "##풂": 6481,
      "##랔": 6482,
      "##컥": 6483,
      "##흠": 6484,
      "##🧚": 6485,
      "##뻑": 6486,
      "##칮": 6487,
      "##엌": 6488,
      "##갇": 6489,
      "##걑": 6490,
      "##걀": 6491,
      "##욜": 6492,
      "##꿍": 6493,
      "##삘": 6494,
      "##읎": 6495,
      "##꿀": 6496,
      "##뉘": 6497,
      "##냠": 6498,
      "##낑": 6499,
      "##뵤": 6500,
      "##즤": 6501,
      "##륄": 6502,
      "##밈": 6503,
      "##넥": 6504,
      "##윌": 6505,
      "##😚": 6506,
      "##🙂": 6507,
      "##🤗": 6508,
      "##😀": 6509,
      "##😁": 6510,
      "##😗": 6511,
      "##😅": 6512,
      "##헙": 6513,
      "##쨌": 6514,
      "##걔": 6515,
      "##끓": 6516,
      "##빽": 6517,
      "##찡": 6518,
      "##솝": 6519,
      "##홓": 6520,
      "##팁": 6521,
      "##솜": 6522,
      "##궐": 6523,
      "##멩": 6524,
      "##땀": 6525,
      "##앓": 6526,
      "##🤩": 6527,
      "##듦": 6528,
      "##빋": 6529,
      "##슐": 6530,
      "##쿼": 6531,
      "##솨": 6532,
      "##랏": 6533,
      "##뤘": 6534,
      "##튿": 6535,
      "##귝": 6536,
      "##뎨": 6537,
      "##돔": 6538,
      "##🦶": 6539,
      "##✋": 6540,
      "##콴": 6541,
      "##썅": 6542,
      "##넸": 6543,
      "##젔": 6544,
      "##옳": 6545,
      "##뻤": 6546,
      "##뱀": 6547,
      "##잤": 6548,
      "##😱": 6549,
      "##é": 6550,
      "##윙": 6551,
      "##줭": 6552,
      "##됴": 6553,
      "##훔": 6554,
      "##헀": 6555,
      "##팍": 6556,
      "##겔": 6557,
      "##팽": 6558,
      "##쌔": 6559,
      "##샠": 6560,
      "##햐": 6561,
      "##첼": 6562,
      "##죵": 6563,
      "##숯": 6564,
      "##룽": 6565,
      "##깍": 6566,
      "##뤼": 6567,
      "##솥": 6568,
      "##섯": 6569,
      "##뭣": 6570,
      "##얔": 6571,
      "##빻": 6572,
      "##샛": 6573,
      "##캣": 6574,
      "##쪼": 6575,
      "##뫃": 6576,
      "##잊": 6577,
      "##햔": 6578,
      "##뇸": 6579,
      "##밌": 6580,
      "##쯔": 6581,
      "##㎾": 6582,
      "##쟙": 6583,
      "##옺": 6584,
      "##😡": 6585,
      "##🐔": 6586,
      "##♡": 6587,
      "##핍": 6588,
      "##ㅃ": 6589,
      "##뻘": 6590,
      "##🇰": 6591,
      "##셩": 6592,
      "##팰": 6593,
      "##톨": 6594,
      "##딪": 6595,
      "##Ⅱ": 6596,
      "##🥳": 6597,
      "##띤": 6598,
      "##룔": 6599,
      "##쾅": 6600,
      "##●": 6601,
      "##핥": 6602,
      "##넼": 6603,
      "##뵨": 6604,
      "##е": 6605,
      "##в": 6606,
      "##о": 6607,
      "##л": 6608,
      "##ю": 6609,
      "##ц": 6610,
      "##괜": 6611,
      "##큅": 6612,
      "##젬": 6613,
      "##콕": 6614,
      "##웰": 6615,
      "##⚠": 6616,
      "##밝": 6617,
      "##췌": 6618,
      "##칫": 6619,
      "##믿": 6620,
      "##β": 6621,
      "##켈": 6622,
      "##멤": 6623,
      "##앱": 6624,
      "##젱": 6625,
      "##슥": 6626,
      "##뺨": 6627,
      "##뽐": 6628,
      "##뤠": 6629,
      "##♂": 6630,
      "##넛": 6631,
      "##츨": 6632,
      "##됫": 6633,
      "##쭉": 6634,
      "##잨": 6635,
      "##㊗": 6636,
      "##핫": 6637,
      "##샀": 6638,
      "##쩨": 6639,
      "##겉": 6640,
      "##💞": 6641,
      "##펫": 6642,
      "##셤": 6643,
      "##💘": 6644,
      "##💫": 6645,
      "##띵": 6646,
      "##멎": 6647,
      "##킼": 6648,
      "##꺽": 6649,
      "##🐕": 6650,
      "##룻": 6651,
      "##펴": 6652,
      "##곘": 6653,
      "##퓌": 6654,
      "##👀": 6655,
      "##멧": 6656,
      "##늑": 6657,
      "##á": 6658,
      "##좆": 6659,
      "##섴": 6660,
      "##ч": 6661,
      "##г": 6662,
      "##갛": 6663,
      "##잣": 6664,
      "##롴": 6665,
      "##🙊": 6666,
      "##셍": 6667,
      "##붸": 6668,
      "##챔": 6669,
      "##똘": 6670,
      "##🤔": 6671,
      "##깻": 6672,
      "##ち": 6673,
      "##マ": 6674,
      "##シ": 6675,
      "##カ": 6676,
      "##🐖": 6677,
      "##쭈": 6678,
      "##๑": 6679,
      "##탔": 6680,
      "##빗": 6681,
      "##훨": 6682,
      "##졔": 6683,
      "##씸": 6684,
      "##릎": 6685,
      "##묻": 6686,
      "##캡": 6687,
      "##샹": 6688,
      "##뫄": 6689,
      "##옮": 6690,
      "##🐷": 6691,
      "##읹": 6692,
      "##갠": 6693,
      "##ㅔ": 6694,
      "##맵": 6695,
      "##튬": 6696,
      "##킵": 6697,
      "##듐": 6698,
      "##쑤": 6699,
      "##눅": 6700,
      "##쮸": 6701,
      "##쐈": 6702,
      "##괼": 6703,
      "##짚": 6704,
      "##댐": 6705,
      "##벋": 6706,
      "##😉": 6707,
      "##🌻": 6708,
      "##엥": 6709,
      "##꿇": 6710,
      "##쩟": 6711,
      "##㎏": 6712,
      "##혓": 6713,
      "##욧": 6714,
      "##뺃": 6715,
      "##윽": 6716,
      "##↘": 6717,
      "##쪙": 6718,
      "##뺌": 6719,
      "##쌕": 6720,
      "##낍": 6721,
      "##💖": 6722,
      "##븅": 6723,
      "##뎌": 6724,
      "##😨": 6725,
      "##😈": 6726,
      "##헐": 6727,
      "##쉭": 6728,
      "##낏": 6729,
      "##р": 6730,
      "##т": 6731,
      "##с": 6732,
      "##꿘": 6733,
      "##🍅": 6734,
      "##ā": 6735,
      "##횃": 6736,
      "##잃": 6737,
      "##👎": 6738,
      "##퀄": 6739,
      "##짛": 6740,
      "##먕": 6741,
      "##즉": 6742,
      "##헴": 6743,
      "##뜬": 6744,
      "##맬": 6745,
      "##❄": 6746,
      "##뚤": 6747,
      "##닞": 6748,
      "##👉": 6749,
      "##쮜": 6750,
      "##갚": 6751,
      "##맷": 6752,
      "##귿": 6753,
      "##😔": 6754,
      "##읻": 6755,
      "##🎶": 6756,
      "##슛": 6757,
      "##텨": 6758,
      "##얍": 6759,
      "##➡": 6760,
      "##꾹": 6761,
      "##★": 6762,
      "##△": 6763,
      "##툭": 6764,
      "##꽉": 6765,
      "##◆": 6766,
      "##쩜": 6767,
      "##꿨": 6768,
      "##🍒": 6769,
      "##🍑": 6770,
      "##맏": 6771,
      "##벵": 6772,
      "##볕": 6773,
      "##λ": 6774,
      "##몫": 6775,
      "##쿰": 6776,
      "##곱": 6777,
      "##☀": 6778,
      "##뷸": 6779,
      "##💜": 6780,
      "##🚗": 6781,
      "##뎄": 6782,
      "##🍖": 6783,
      "##🍲": 6784,
      "##뢔": 6785,
      "##봘": 6786,
      "##앨": 6787,
      "##쎈": 6788,
      "##휼": 6789,
      "##칬": 6790,
      "##얄": 6791,
      "##졓": 6792,
      "##둿": 6793,
      "##푹": 6794,
      "##씻": 6795,
      "##퐐": 6796,
      "##쩐": 6797,
      "##뀔": 6798,
      "##녔": 6799,
      "##쉴": 6800,
      "##⋅": 6801,
      "##맸": 6802,
      "##됌": 6803,
      "##짆": 6804,
      "##🍃": 6805,
      "##🌱": 6806,
      "##슝": 6807,
      "##멱": 6808,
      "##🎀": 6809,
      "##÷": 6810,
      "##턱": 6811,
      "##🖐": 6812,
      "##📚": 6813,
      "##🔶": 6814,
      "##멈": 6815,
      "##췄": 6816,
      "##숴": 6817,
      "##쟌": 6818,
      "##쿡": 6819,
      "##헨": 6820,
      "##웩": 6821,
      "##쉰": 6822,
      "##퓸": 6823,
      "##갘": 6824,
      "##🏼": 6825,
      "##멉": 6826,
      "##쫄": 6827,
      "##쭘": 6828,
      "##▼": 6829,
      "##잏": 6830,
      "##빱": 6831,
      "##펍": 6832,
      "##밧": 6833,
      "##🐈": 6834,
      "##셴": 6835,
      "##🐶": 6836,
      "##찝": 6837,
      "##ᄃ": 6838,
      "##ᅡ": 6839,
      "##댘": 6840,
      "##쭌": 6841,
      "##탭": 6842,
      "##싳": 6843,
      "##밉": 6844,
      "##🤬": 6845,
      "##햘": 6846,
      "##㏄": 6847,
      "##쑥": 6848,
      "##븀": 6849,
      "##훙": 6850,
      "##∙": 6851,
      "##뺠": 6852,
      "##젖": 6853,
      "##좇": 6854,
      "##쳑": 6855,
      "##ㅓ": 6856,
      "##웬": 6857,
      "##벡": 6858,
      "##핰": 6859,
      "##④": 6860,
      "##👧": 6861,
      "##👦": 6862,
      "##깎": 6863,
      "##헿": 6864,
      "##😩": 6865,
      "##튄": 6866,
      "##🔞": 6867,
      "##젯": 6868,
      "##낯": 6869,
      "##찢": 6870,
      "##뀐": 6871,
      "##햑": 6872,
      "##썹": 6873,
      "##섰": 6874,
      "##펄": 6875,
      "##ᆡ": 6876,
      "##ᄒ": 6877,
      "##쌩": 6878,
      "##떳": 6879,
      "##훗": 6880,
      "##긕": 6881,
      "##끙": 6882,
      "##잗": 6883,
      "##횐": 6884,
      "##섕": 6885,
      "##🌝": 6886,
      "##샴": 6887,
      "##듁": 6888,
      "##챌": 6889,
      "##쫑": 6890,
      "##푠": 6891,
      "##쭙": 6892,
      "##씰": 6893,
      "##🚀": 6894,
      "##💥": 6895,
      "##튕": 6896,
      "##💓": 6897,
      "##😙": 6898,
      "##쉔": 6899,
      "##짧": 6900,
      "##텝": 6901,
      "##쳬": 6902,
      "##렷": 6903,
      "##랠": 6904,
      "##젊": 6905,
      "##틈": 6906,
      "##봥": 6907,
      "##❗": 6908,
      "##펐": 6909,
      "##🤪": 6910,
      "##🎊": 6911,
      "##픔": 6912,
      "##⛔": 6913,
      "##낚": 6914,
      "##웜": 6915,
      "##꽥": 6916,
      "##낰": 6917,
      "##💃": 6918,
      "##🍊": 6919,
      "##붉": 6920,
      "##℃": 6921,
      "##찿": 6922,
      "##깥": 6923,
      "##쬐": 6924,
      "##쥔": 6925,
      "##햅": 6926,
      "##ä": 6927,
      "##뻬": 6928,
      "##샥": 6929,
      "##뺀": 6930,
      "##갯": 6931,
      "##💪": 6932,
      "##🥢": 6933,
      "##깟": 6934,
      "##씅": 6935,
      "##쵸": 6936,
      "##띨": 6937,
      "##댜": 6938,
      "##탉": 6939,
      "##숟": 6940,
      "##뎀": 6941,
      "##띄": 6942,
      "##±": 6943,
      "##イ": 6944,
      "##줏": 6945,
      "##굽": 6946,
      "##헹": 6947,
      "##뇰": 6948,
      "##휠": 6949,
      "##얺": 6950,
      "##깊": 6951,
      "##🇷": 6952,
      "##숑": 6953,
      "##🤭": 6954,
      "##챠": 6955,
      "##❓": 6956,
      "##됄": 6957,
      "##뀝": 6958,
      "##곁": 6959,
      "##괭": 6960,
      "##듸": 6961,
      "##덧": 6962,
      "##쥰": 6963,
      "##읗": 6964,
      "##놋": 6965,
      "##딕": 6966,
      "##썰": 6967,
      "##😐": 6968,
      "##횽": 6969,
      "##썻": 6970,
      "##펨": 6971,
      "##햤": 6972,
      "##쉨": 6973,
      "##핮": 6974,
      "##▲": 6975,
      "##돟": 6976,
      "##톳": 6977,
      "##굶": 6978,
      "##앖": 6979,
      "##빳": 6980,
      "##к": 6981,
      "##п": 6982,
      "##ш": 6983,
      "##｜": 6984,
      "##🍫": 6985,
      "##🍰": 6986,
      "##닛": 6987,
      "##읜": 6988,
      "##댸": 6989,
      "##ℓ": 6990,
      "##🐰": 6991,
      "##딤": 6992,
      "##솎": 6993,
      "##캉": 6994,
      "##믓": 6995,
      "##뼉": 6996,
      "##💤": 6997,
      "##엣": 6998,
      "##둣": 6999,
      "##굳": 7000,
      "##😮": 7001,
      "##뱉": 7002,
      "##졷": 7003,
      "##📸": 7004,
      "##깼": 7005,
      "##읃": 7006,
      "##켁": 7007,
      "##🐦": 7008,
      "##뻣": 7009,
      "##릐": 7010,
      "##🐥": 7011,
      "##👊": 7012,
      "##묭": 7013,
      "##↓": 7014,
      "##🐵": 7015,
      "##か": 7016,
      "##と": 7017,
      "##😜": 7018,
      "##🍻": 7019,
      "##욥": 7020,
      "##꽝": 7021,
      "##켕": 7022,
      "##쵝": 7023,
      "##뵌": 7024,
      "##싣": 7025,
      "##™": 7026,
      "##😛": 7027,
      "##됭": 7028,
      "##훅": 7029,
      "##쫏": 7030,
      "##퐁": 7031,
      "##땟": 7032,
      "##늧": 7033,
      "##꙼": 7034,
      "##̈": 7035,
      "##듵": 7036,
      "##섁": 7037,
      "##😞": 7038,
      "##쉘": 7039,
      "##뵹": 7040,
      "##횬": 7041,
      "##깁": 7042,
      "##쳥": 7043,
      "##♬": 7044,
      "##ㅛ": 7045,
      "##흰": 7046,
      "##촟": 7047,
      "##볘": 7048,
      "##숀": 7049,
      "##핟": 7050,
      "##댠": 7051,
      "##ㅤ": 7052,
      "##à": 7053,
      "##힝": 7054,
      "##퀼": 7055,
      "##겤": 7056,
      "##🥶": 7057,
      "##앝": 7058,
      "##챵": 7059,
      "##꿩": 7060,
      "##쨩": 7061,
      "##밎": 7062,
      "##씁": 7063,
      "##💝": 7064,
      "##짴": 7065,
      "##겡": 7066,
      "##햬": 7067,
      "##앟": 7068,
      "##젹": 7069,
      "##윷": 7070,
      "##☝": 7071,
      "##뽤": 7072,
      "##㎉": 7073,
      "##낟": 7074,
      "##죸": 7075,
      "##싯": 7076,
      "##◀": 7077,
      "##슌": 7078,
      "##я": 7079,
      "##옼": 7080,
      "##눗": 7081,
      "##맟": 7082,
      "##꿋": 7083,
      "##☔": 7084,
      "##め": 7085,
      "##れ": 7086,
      "##🚴": 7087,
      "##🐒": 7088,
      "##🐗": 7089,
      "##몄": 7090,
      "##®": 7091,
      "##ㄸ": 7092,
      "##🇯": 7093,
      "##쭤": 7094,
      "##쌋": 7095,
      "##븡": 7096,
      "##뎐": 7097,
      "##👈": 7098,
      "##휩": 7099,
      "##í": 7100,
      "##껑": 7101,
      "##굼": 7102,
      "##냘": 7103,
      "##땔": 7104,
      "##쑹": 7105,
      "##꿰": 7106,
      "##캄": 7107,
      "##💗": 7108,
      "##🎈": 7109,
      "##쫘": 7110,
      "##탬": 7111,
      "##멊": 7112,
      "##겆": 7113,
      "##쥭": 7114,
      "##홉": 7115,
      "##귈": 7116,
      "##좔": 7117,
      "##캍": 7118,
      "##ᴱ": 7119,
      "##쥥": 7120,
      "##꼐": 7121,
      "##칵": 7122,
      "##훠": 7123,
      "##랼": 7124,
      "##🌶": 7125,
      "##🔪": 7126,
      "##먀": 7127,
      "##뷴": 7128,
      "##곯": 7129,
      "##☞": 7130,
      "##👋": 7131,
      "##핳": 7132,
      "##옄": 7133,
      "##뎁": 7134,
      "##갗": 7135,
      "##뫼": 7136,
      "##촹": 7137,
      "##궄": 7138,
      "##쓉": 7139,
      "##닳": 7140,
      "##Ⅲ": 7141,
      "##🍎": 7142,
      "##⑶": 7143,
      "##졀": 7144,
      "##샙": 7145,
      "##춧": 7146,
      "##헸": 7147,
      "##늣": 7148,
      "##쨔": 7149,
      "##땍": 7150,
      "##🐎": 7151,
      "##😢": 7152,
      "##う": 7153,
      "##い": 7154,
      "##こ": 7155,
      "##🙌": 7156,
      "##👆": 7157,
      "##렝": 7158,
      "##✈": 7159,
      "##녓": 7160,
      "##뺐": 7161,
      "##뢀": 7162,
      "##➰": 7163,
      "##る": 7164,
      "##も": 7165,
      "##の": 7166,
      "##뽁": 7167,
      "##켯": 7168,
      "##쫙": 7169,
      "##셱": 7170,
      "##볌": 7171,
      "##썽": 7172,
      "##맑": 7173,
      "##찻": 7174,
      "##☁": 7175,
      "##잰": 7176,
      "##엏": 7177,
      "##좡": 7178,
      "##츼": 7179,
      "##궜": 7180,
      "##⚡": 7181,
      "##쭛": 7182,
      "##뀜": 7183,
      "##🖤": 7184,
      "##뻗": 7185,
      "##츤": 7186,
      "##썸": 7187,
      "##🍁": 7188,
      "##챦": 7189,
      "##앴": 7190,
      "##첵": 7191,
      "##똔": 7192,
      "##듕": 7193,
      "##숄": 7194,
      "##롄": 7195,
      "##д": 7196,
      "##펭": 7197,
      "##뱌": 7198,
      "##갼": 7199,
      "##겋": 7200,
      "##🙈": 7201,
      "##☄": 7202,
      "##셌": 7203,
      "##옿": 7204,
      "##💍": 7205,
      "##👴": 7206,
      "##☕": 7207,
      "##껐": 7208,
      "##껌": 7209,
      "##춥": 7210,
      "##퀵": 7211,
      "##냑": 7212,
      "##곀": 7213,
      "##㎎": 7214,
      "##😲": 7215,
      "##퍈": 7216,
      "##➖": 7217,
      "##엮": 7218,
      "##풉": 7219,
      "##🎄": 7220,
      "##붇": 7221,
      "##떰": 7222,
      "##뜰": 7223,
      "##겍": 7224,
      "##쌌": 7225,
      "##쫒": 7226,
      "##뿍": 7227,
      "##귓": 7228,
      "##쏭": 7229,
      "##퍠": 7230,
      "##돗": 7231,
      "##솽": 7232,
      "##츙": 7233,
      "##놉": 7234,
      "##죗": 7235,
      "##볗": 7236,
      "##꿧": 7237,
      "##붑": 7238,
      "##꼿": 7239,
      "##퀀": 7240,
      "##❌": 7241,
      "##얐": 7242,
      "##텋": 7243,
      "##쪕": 7244,
      "##🦐": 7245,
      "##ы": 7246,
      "##🍀": 7247,
      "##샜": 7248,
      "##엾": 7249,
      "##맺": 7250,
      "##몃": 7251,
      "##텡": 7252,
      "##α": 7253,
      "##뮬": 7254,
      "##밪": 7255,
      "##폄": 7256,
      "##싨": 7257,
      "##🍔": 7258,
      "##뿅": 7259,
      "##😄": 7260,
      "##ㅐ": 7261,
      "##쥘": 7262,
      "##괌": 7263,
      "##🦀": 7264,
      "##뛴": 7265,
      "##삔": 7266,
      "##녠": 7267,
      "##⠀": 7268,
      "##💩": 7269,
      "##웡": 7270,
      "##쫩": 7271,
      "##뭏": 7272,
      "##섣": 7273,
      "##て": 7274,
      "##캇": 7275,
      "##😋": 7276,
      "##끽": 7277,
      "##ö": 7278,
      "##쀼": 7279,
      "##땃": 7280,
      "##콰": 7281,
      "##읇": 7282,
      "##촐": 7283,
      "##뽄": 7284,
      "##뽝": 7285,
      "##믜": 7286,
      "##쭐": 7287,
      "##🕊": 7288,
      "##촨": 7289,
      "##샨": 7290,
      "##ㅕ": 7291,
      "##ㄳ": 7292,
      "##🍺": 7293,
      "##ｇ": 7294,
      "##㎖": 7295,
      "##츰": 7296,
      "##🎉": 7297,
      "##💐": 7298,
      "##🍾": 7299,
      "##쥣": 7300,
      "##쪹": 7301,
      "##🌲": 7302,
      "##³": 7303,
      "##뗌": 7304,
      "##왠": 7305,
      "##🍟": 7306,
      "##랗": 7307,
      "##뚠": 7308,
      "##첬": 7309,
      "##톈": 7310,
      "##📣": 7311,
      "##🔵": 7312,
      "##몹": 7313,
      "##팻": 7314,
      "##낡": 7315,
      "##짢": 7316,
      "##뼝": 7317,
      "##꽤": 7318,
      "##빴": 7319,
      "##홋": 7320,
      "##헥": 7321,
      "##밨": 7322,
      "##쎅": 7323,
      "##쯩": 7324,
      "##🇹": 7325,
      "##🇭": 7326,
      "##쒀": 7327,
      "##싢": 7328,
      "##쑬": 7329,
      "##깠": 7330,
      "##깈": 7331,
      "##쟛": 7332,
      "##🐤": 7333,
      "##꾀": 7334,
      "##곬": 7335,
      "##🚩": 7336,
      "##짼": 7337,
      "##듄": 7338,
      "##쒝": 7339,
      "##㈎": 7340,
      "##좁": 7341,
      "##씽": 7342,
      "##쳇": 7343,
      "##뿡": 7344,
      "##캥": 7345,
      "##샣": 7346,
      "##◈": 7347,
      "##🎗": 7348,
      "##깄": 7349,
      "##먄": 7350,
      "##휜": 7351,
      "##롹": 7352,
      "##왤": 7353,
      "##큘": 7354,
      "##둡": 7355,
      "##읶": 7356,
      "##ん": 7357,
      "##΄": 7358,
      "##😴": 7359,
      "##뱄": 7360,
      "##셸": 7361,
      "##핧": 7362,
      "##엤": 7363,
      "##🤦": 7364,
      "##쯥": 7365,
      "##긑": 7366,
      "##😻": 7367,
      "##찟": 7368,
      "##🍴": 7369,
      "##뗄": 7370,
      "##ᄅ": 7371,
      "##ᆯ": 7372,
      "##😌": 7373,
      "##퉈": 7374,
      "##㎸": 7375,
      "##켠": 7376,
      "##팠": 7377,
      "##옻": 7378,
      "##넙": 7379,
      "##🍓": 7380,
      "##😣": 7381,
      "##렿": 7382,
      "##앍": 7383,
      "##🍗": 7384,
      "##🙅": 7385,
      "##㎐": 7386,
      "##켤": 7387,
      "##🏃": 7388,
      "##🍂": 7389,
      "##쟤": 7390,
      "##짰": 7391,
      "##🍼": 7392,
      "##겧": 7393,
      "##짹": 7394,
      "##₁": 7395,
      "##👣": 7396,
      "##뭡": 7397,
      "##⅔": 7398,
      "##😓": 7399,
      "##🍽": 7400,
      "##딲": 7401,
      "##🤐": 7402,
      "##☠": 7403,
      "##힛": 7404,
      "##앳": 7405,
      "##몾": 7406,
      "##읔": 7407,
      "##💧": 7408,
      "##믐": 7409,
      "##✔": 7410,
      "##랃": 7411,
      "##줴": 7412,
      "##뭍": 7413,
      "##핡": 7414,
      "##📽": 7415,
      "##낵": 7416,
      "##갬": 7417,
      "##솤": 7418,
      "##🎁": 7419,
      "##🌙": 7420,
      "##🍉": 7421,
      "##퇘": 7422,
      "##쉿": 7423,
      "##귤": 7424,
      "##윕": 7425,
      "##눼": 7426,
      "##뇽": 7427,
      "##쎼": 7428,
      "##쐐": 7429,
      "##👨": 7430,
      "##럄": 7431,
      "##썪": 7432,
      "##긱": 7433,
      "##늪": 7434,
      "##삯": 7435,
      "##좦": 7436,
      "##뮐": 7437,
      "##녘": 7438,
      "##あ": 7439,
      "##は": 7440,
      "##갲": 7441,
      "##💢": 7442,
      "##셕": 7443,
      "##숵": 7444,
      "##돛": 7445,
      "##몐": 7446,
      "##👄": 7447,
      "##밣": 7448,
      "##덯": 7449,
      "##읺": 7450,
      "##몆": 7451,
      "##🤓": 7452,
      "##🧐": 7453,
      "##쥑": 7454,
      "##푀": 7455,
      "##🐽": 7456,
      "##쉒": 7457,
      "##쓱": 7458,
      "##🌋": 7459,
      "##쥤": 7460,
      "##콥": 7461,
      "##뺑": 7462,
      "##쥼": 7463,
      "##❛": 7464,
      "##ᴗ": 7465,
      "##②": 7466,
      "##π": 7467,
      "##죹": 7468,
      "##뗏": 7469,
      "##🐀": 7470,
      "##옇": 7471,
      "##🍤": 7472,
      "##넋": 7473,
      "##츌": 7474,
      "##탸": 7475,
      "##🌛": 7476,
      "##햏": 7477,
      "##촵": 7478,
      "##싄": 7479,
      "##뉼": 7480,
      "##둉": 7481,
      "##ᄂ": 7482,
      "##ᄋ": 7483,
      "##ᅵ": 7484,
      "##틔": 7485,
      "##💁": 7486,
      "##깢": 7487,
      "##믁": 7488,
      "##핬": 7489,
      "##쌨": 7490,
      "##굥": 7491,
      "##뭄": 7492,
      "##켸": 7493,
      "##🌷": 7494,
      "##た": 7495,
      "##㉢": 7496,
      "##뎡": 7497,
      "##に": 7498,
      "##り": 7499,
      "##ま": 7500,
      "##📌": 7501,
      "##쥴": 7502,
      "##삑": 7503,
      "##ジ": 7504,
      "##ス": 7505,
      "##🐱": 7506,
      "##봨": 7507,
      "##껜": 7508,
      "##쉥": 7509,
      "##🎬": 7510,
      "##쾡": 7511,
      "##😫": 7512,
      "##く": 7513,
      "##㎍": 7514,
      "##😰": 7515,
      "##룐": 7516,
      "##≪": 7517,
      "##쨉": 7518,
      "##☆": 7519,
      "##칀": 7520,
      "##쬬": 7521,
      "##₩": 7522,
      "##헠": 7523,
      "##꾜": 7524,
      "##🤘": 7525,
      "##잫": 7526,
      "##뭬": 7527,
      "##팃": 7528,
      "##좉": 7529,
      "##왑": 7530,
      "##븨": 7531,
      "##👌": 7532,
      "##깬": 7533,
      "##럐": 7534,
      "##돚": 7535,
      "##뷩": 7536,
      "##🏊": 7537,
      "##뺴": 7538,
      "##흫": 7539,
      "##🎸": 7540,
      "##딹": 7541,
      "##쎔": 7542,
      "##🥖": 7543,
      "##°": 7544,
      "##캑": 7545,
      "##◇": 7546,
      "##쭝": 7547,
      "##앋": 7548,
      "##냣": 7549,
      "##й": 7550,
      "##👅": 7551,
      "##□": 7552,
      "##ᴜ": 7553,
      "##ᴛ": 7554,
      "##눞": 7555,
      "##띁": 7556,
      "##뗀": 7557,
      "##🌴": 7558,
      "##읁": 7559,
      "##🏠": 7560,
      "##き": 7561,
      "##🕺": 7562,
      "##얶": 7563,
      "##👿": 7564,
      "##😯": 7565,
      "##🇼": 7566,
      "##↔": 7567,
      "##좍": 7568,
      "##👤": 7569,
      "##촤": 7570,
      "##켬": 7571,
      "##🥗": 7572,
      "##🍷": 7573,
      "##줗": 7574,
      "##σ": 7575,
      "##묜": 7576,
      "##섺": 7577,
      "##앂": 7578,
      "##뵙": 7579,
      "##︎": 7580,
      "##윅": 7581,
      "##🐙": 7582,
      "##휭": 7583,
      "##쿱": 7584,
      "##닽": 7585,
      "##🎤": 7586,
      "##🤯": 7587,
      "##🍜": 7588,
      "##챱": 7589,
      "##쇗": 7590,
      "##٩": 7591,
      "##㎘": 7592,
      "##퍄": 7593,
      "##읊": 7594,
      "##🍝": 7595,
      "##🙇": 7596,
      "##🐟": 7597,
      "##즹": 7598,
      "##ㅑ": 7599,
      "##땠": 7600,
      "##쉣": 7601,
      "##🌼": 7602,
      "##폿": 7603,
      "##🎵": 7604,
      "##엊": 7605,
      "##쓔": 7606,
      "##싰": 7607,
      "##릏": 7608,
      "##🐮": 7609,
      "##🐂": 7610,
      "##🔖": 7611,
      "##㎠": 7612,
      "##텬": 7613,
      "##샋": 7614,
      "##챈": 7615,
      "##🤤": 7616,
      "##촙": 7617,
      "##긿": 7618,
      "##🚨": 7619,
      "##떙": 7620,
      "##쫍": 7621,
      "##햌": 7622,
      "##뉨": 7623,
      "##챗": 7624,
      "##칡": 7625,
      "##☎": 7626,
      "##킁": 7627,
      "##🐍": 7628,
      "##̄": 7629,
      "##̆": 7630,
      "##̎": 7631,
      "##짔": 7632,
      "##퐉": 7633,
      "##왝": 7634,
      "##짯": 7635,
      "##놐": 7636,
      "##🤧": 7637,
      "##깞": 7638,
      "##킅": 7639,
      "##얕": 7640,
      "##ら": 7641,
      "##さ": 7642,
      "##🍪": 7643,
      "##븥": 7644,
      "##팎": 7645,
      "##💨": 7646,
      "##샅": 7647,
      "##죈": 7648,
      "##폈": 7649,
      "##멨": 7650,
      "##흴": 7651,
      "##탯": 7652,
      "##읭": 7653,
      "##줒": 7654,
      "##샆": 7655,
      "##잆": 7656,
      "##삣": 7657,
      "##Ⅹ": 7658,
      "##Ⅵ": 7659,
      "##옭": 7660,
      "##쟉": 7661,
      "##핌": 7662,
      "##싴": 7663,
      "##짗": 7664,
      "##🐸": 7665,
      "##앚": 7666,
      "##눴": 7667,
      "##튈": 7668,
      "##お": 7669,
      "##ü": 7670,
      "##멓": 7671,
      "##픕": 7672,
      "##녤": 7673,
      "##🍚": 7674,
      "##탰": 7675,
      "##텁": 7676,
      "##죙": 7677,
      "##윘": 7678,
      "##촘": 7679,
      "##쇤": 7680,
      "##똬": 7681,
      "##🇸": 7682,
      "##죡": 7683,
      "##왁": 7684,
      "##톄": 7685,
      "##🦍": 7686,
      "##🌊": 7687,
      "##😕": 7688,
      "##🤨": 7689,
      "##😶": 7690,
      "##な": 7691,
      "##っ": 7692,
      "##낱": 7693,
      "##푯": 7694,
      "##끅": 7695,
      "##돨": 7696,
      "##웂": 7697,
      "##쳔": 7698,
      "##뛸": 7699,
      "##😖": 7700,
      "##뱍": 7701,
      "##ㅖ": 7702,
      "##プ": 7703,
      "##ラ": 7704,
      "##テ": 7705,
      "##ィ": 7706,
      "##で": 7707,
      "##눟": 7708,
      "##뮌": 7709,
      "##멕": 7710,
      "##х": 7711,
      "##퍅": 7712,
      "##윰": 7713,
      "##щ": 7714,
      "##뱔": 7715,
      "##🍞": 7716,
      "##🥐": 7717,
      "##🍳": 7718,
      "##🍣": 7719,
      "##б": 7720,
      "##ж": 7721,
      "##팹": 7722,
      "##🌳": 7723,
      "##늗": 7724,
      "##🤟": 7725,
      "##엡": 7726,
      "##̊": 7727,
      "##벹": 7728,
      "##훽": 7729,
      "##떔": 7730,
      "##쫀": 7731,
      "##😷": 7732,
      "##쯧": 7733,
      "##⁴": 7734,
      "##쨰": 7735,
      "##틑": 7736,
      "##🤫": 7737,
      "##뎠": 7738,
      "##뗴": 7739,
      "##젛": 7740,
      "##💄": 7741,
      "##を": 7742,
      "##좄": 7743,
      "##즛": 7744,
      "##헵": 7745,
      "##쾨": 7746,
      "##썌": 7747,
      "##늕": 7748,
      "##엨": 7749,
      "##쒼": 7750,
      "##뿟": 7751,
      "##랸": 7752,
      "##뼛": 7753,
      "##✊": 7754,
      "##コ": 7755,
      "##❸": 7756,
      "##씝": 7757,
      "##💎": 7758,
      "##꺵": 7759,
      "##㎛": 7760,
      "##귐": 7761,
      "##볜": 7762,
      "##🐩": 7763,
      "##👺": 7764,
      "##☘": 7765,
      "##힣": 7766,
      "##🧀": 7767,
      "##🥄": 7768,
      "##뜽": 7769,
      "##♣": 7770,
      "##꺾": 7771,
      "##し": 7772,
      "##덫": 7773,
      "##🥑": 7774,
      "##끋": 7775,
      "##뜀": 7776,
      "##🔸": 7777,
      "##꿜": 7778,
      "##뗑": 7779,
      "##갂": 7780,
      "##🔫": 7781,
      "##ا": 7782,
      "##쪈": 7783,
      "##닜": 7784,
      "##🍵": 7785,
      "##🎂": 7786,
      "##굔": 7787,
      "##뤡": 7788,
      "##㏈": 7789,
      "##▣": 7790,
      "##ㅄ": 7791,
      "##욌": 7792,
      "##룟": 7793,
      "##틋": 7794,
      "##🐓": 7795,
      "##🌺": 7796,
      "##앎": 7797,
      "##즨": 7798,
      "##죤": 7799,
      "##휙": 7800,
      "##쟨": 7801,
      "##🍦": 7802,
      "##뱐": 7803,
      "##젭": 7804,
      "##잴": 7805,
      "##⑨": 7806,
      "##🤷": 7807,
      "##텟": 7808,
      "##뙈": 7809,
      "##닏": 7810,
      "##읕": 7811,
      "##💀": 7812,
      "##큭": 7813,
      "##쏵": 7814,
      "##훤": 7815,
      "##쳉": 7816,
      "##켱": 7817,
      "##칰": 7818,
      "##⃣": 7819,
      "##｀": 7820,
      "##🔜": 7821,
      "##륀": 7822,
      "##훑": 7823,
      "##←": 7824,
      "##＾": 7825,
      "##댑": 7826,
      "##맜": 7827,
      "##녈": 7828,
      "##힉": 7829,
      "##⅓": 7830,
      "##⑤": 7831,
      "##🐯": 7832,
      "##땋": 7833,
      "##ෆ": 7834,
      "##🍯": 7835,
      "##レ": 7836,
      "##☢": 7837,
      "##ロ": 7838,
      "##ケ": 7839,
      "##옶": 7840,
      "##퐈": 7841,
      "##🌹": 7842,
      "##컫": 7843,
      "##🎃": 7844,
      "##넒": 7845,
      "##걩": 7846,
      "##씼": 7847,
      "##و": 7848,
      "##🦅": 7849,
      "##뮴": 7850,
      "##왱": 7851,
      "##뱡": 7852,
      "##쐬": 7853,
      "##뗘": 7854,
      "##촞": 7855,
      "##ç": 7856,
      "##뀨": 7857,
      "##옘": 7858,
      "##뗐": 7859,
      "##궂": 7860,
      "##🍏": 7861,
      "##뻡": 7862,
      "##짙": 7863,
      "##쎌": 7864,
      "##🤢": 7865,
      "##ᆫ": 7866,
      "##🥕": 7867,
      "##꿎": 7868,
      "##돝": 7869,
      "##땁": 7870,
      "##붘": 7871,
      "##■": 7872,
      "##튤": 7873,
      "##🚫": 7874,
      "##뜾": 7875,
      "##맄": 7876,
      "##묹": 7877,
      "##먈": 7878,
      "##쎀": 7879,
      "##💋": 7880,
      "##볐": 7881,
      "##💟": 7882,
      "##멥": 7883,
      "##숱": 7884,
      "##㎒": 7885,
      "##⭕": 7886,
      "##🌞": 7887,
      "##좨": 7888,
      "##ь": 7889,
      "##갭": 7890,
      "##콱": 7891,
      "##쫗": 7892,
      "##윔": 7893,
      "##🥊": 7894,
      "##🐑": 7895,
      "##땄": 7896,
      "##쪘": 7897,
      "##ェ": 7898,
      "##ル": 7899,
      "##⑴": 7900,
      "##뜷": 7901,
      "##뵐": 7902,
      "##짒": 7903,
      "##톼": 7904,
      "##📍": 7905,
      "##뢴": 7906,
      "##è": 7907,
      "##촣": 7908,
      "##큽": 7909,
      "##훕": 7910,
      "##윾": 7911,
      "##쏩": 7912,
      "##곪": 7913,
      "##벧": 7914,
      "##ʕ": 7915,
      "##놰": 7916,
      "##⑥": 7917,
      "##궹": 7918,
      "##얇": 7919,
      "##け": 7920,
      "##◎": 7921,
      "##🥇": 7922,
      "##♩": 7923,
      "##す": 7924,
      "##몪": 7925,
      "##ᄉ": 7926,
      "##🙃": 7927,
      "##🥺": 7928,
      "##먐": 7929,
      "##웻": 7930,
      "##츈": 7931,
      "##뼘": 7932,
      "##🖒": 7933,
      "##틍": 7934,
      "##랒": 7935,
      "##싷": 7936,
      "##ι": 7937,
      "##붤": 7938,
      "##셑": 7939,
      "##쐇": 7940,
      "##롼": 7941,
      "##벞": 7942,
      "##죴": 7943,
      "##흩": 7944,
      "##ニ": 7945,
      "##💰": 7946,
      "##닢": 7947,
      "##벱": 7948,
      "##핝": 7949,
      "##웤": 7950,
      "##얽": 7951,
      "##몌": 7952,
      "##췃": 7953,
      "##욋": 7954,
      "##틉": 7955,
      "##챘": 7956,
      "##뎬": 7957,
      "##쌘": 7958,
      "##퉷": 7959,
      "##밞": 7960,
      "##뽈": 7961,
      "##🥛": 7962,
      "##줜": 7963,
      "##🍕": 7964,
      "##춴": 7965,
      "##🔹": 7966,
      "##퇄": 7967,
      "##솅": 7968,
      "##🇺": 7969,
      "##🕯": 7970,
      "##👼": 7971,
      "##쐑": 7972,
      "##😧": 7973,
      "##が": 7974,
      "##끕": 7975,
      "##괞": 7976,
      "##🌚": 7977,
      "##バ": 7978,
      "##슼": 7979,
      "##🐻": 7980,
      "##읿": 7981,
      "##줮": 7982,
      "##💣": 7983,
      "##옙": 7984,
      "##죧": 7985,
      "##줠": 7986,
      "##셓": 7987,
      "##죌": 7988,
      "##퐝": 7989,
      "##쿸": 7990,
      "##씐": 7991,
      "##ο": 7992,
      "##럈": 7993,
      "##먜": 7994,
      "##믕": 7995,
      "##죳": 7996,
      "##뙤": 7997,
      "##쳄": 7998,
      "##뢸": 7999,
      "##뽜": 8000,
      "##ɪ": 8001,
      "##꺅": 8002,
      "##ㄺ": 8003,
      "##뤈": 8004,
      "##쟀": 8005,
      "##み": 8006,
      "##ぬ": 8007,
      "##∥": 8008,
      "##🎅": 8009,
      "##🍇": 8010,
      "##숏": 8011,
      "##🙉": 8012,
      "##🏽": 8013,
      "##툥": 8014,
      "##슭": 8015,
      "##벰": 8016,
      "##쨈": 8017,
      "##졘": 8018,
      "##쏨": 8019,
      "##늫": 8020,
      "##춍": 8021,
      "##겊": 8022,
      "##믽": 8023,
      "##섶": 8024,
      "##띈": 8025,
      "##휀": 8026,
      "##ʟ": 8027,
      "##🤑": 8028,
      "##뷜": 8029,
      "##̴": 8030,
      "##̶": 8031,
      "##̷": 8032,
      "##̀": 8033,
      "##띔": 8034,
      "##샾": 8035,
      "##챕": 8036,
      "##👯": 8037,
      "##📝": 8038,
      "##붜": 8039,
      "##🐭": 8040,
      "##ː": 8041,
      "##🙀": 8042,
      "##껫": 8043,
      "##뜹": 8044,
      "##뙨": 8045,
      "##쏱": 8046,
      "##괵": 8047,
      "##잍": 8048,
      "##뽂": 8049,
      "##И": 8050,
      "##닯": 8051,
      "##됍": 8052,
      "##싑": 8053,
      "##📷": 8054,
      "##궉": 8055,
      "##짊": 8056,
      "##컾": 8057,
      "##◞": 8058,
      "##˂": 8059,
      "##̵": 8060,
      "##✧": 8061,
      "##👭": 8062,
      "##맇": 8063,
      "##띱": 8064,
      "##タ": 8065,
      "##㎓": 8066,
      "##③": 8067,
      "##뇐": 8068,
      "##텼": 8069,
      "##셥": 8070,
      "##よ": 8071,
      "##왹": 8072,
      "##텄": 8073,
      "##뉩": 8074,
      "##잿": 8075,
      "##옜": 8076,
      "##쨘": 8077,
      "##튭": 8078,
      "##뻴": 8079,
      "##¹": 8080,
      "##웽": 8081,
      "##ᴏ": 8082,
      "##ᴇ": 8083,
      "##ε": 8084,
      "##ω": 8085,
      "##㎚": 8086,
      "##깩": 8087,
      "##♪": 8088,
      "##왐": 8089,
      "##🎧": 8090,
      "##뤽": 8091,
      "##쭵": 8092,
      "##쪾": 8093,
      "##밢": 8094,
      "##🍠": 8095,
      "##⇒": 8096,
      "##▽": 8097,
      "##わ": 8098,
      "##갹": 8099,
      "##🍭": 8100,
      "##볏": 8101,
      "##륌": 8102,
      "##💡": 8103,
      "##쏼": 8104,
      "##렜": 8105,
      "##컄": 8106,
      "##ᴀ": 8107,
      "##♦": 8108,
      "##떫": 8109,
      "##💯": 8110,
      "##쑴": 8111,
      "##🍩": 8112,
      "##ム": 8113,
      "##グ": 8114,
      "##큉": 8115,
      "##👽": 8116,
      "##ᄏ": 8117,
      "##つ": 8118,
      "##렠": 8119,
      "##쾰": 8120,
      "##뤌": 8121,
      "##똭": 8122,
      "##😟": 8123,
      "##깆": 8124,
      "##얜": 8125,
      "##귁": 8126,
      "##뾰": 8127,
      "##К": 8128,
      "##А": 8129,
      "##▷": 8130,
      "##믾": 8131,
      "##ᄀ": 8132,
      "##떽": 8133,
      "##뭥": 8134,
      "##🏾": 8135,
      "##̑": 8136,
      "##왘": 8137,
      "##찧": 8138,
      "##띡": 8139,
      "##좈": 8140,
      "##쉈": 8141,
      "##①": 8142,
      "##챨": 8143,
      "##＄": 8144,
      "##욍": 8145,
      "##핣": 8146,
      "##쯕": 8147,
      "##🐣": 8148,
      "##숼": 8149,
      "##줙": 8150,
      "##🍡": 8151,
      "##좟": 8152,
      "##퉜": 8153,
      "##빢": 8154,
      "##솰": 8155,
      "##🛑": 8156,
      "##홥": 8157,
      "##굻": 8158,
      "##뺘": 8159,
      "##ф": 8160,
      "##닶": 8161,
      "##볓": 8162,
      "##샇": 8163,
      "##팼": 8164,
      "##툇": 8165,
      "##ㅢ": 8166,
      "##펏": 8167,
      "##슁": 8168,
      "##͈": 8169,
      "##￦": 8170,
      "##ノ": 8171,
      "##✂": 8172,
      "##맗": 8173,
      "##삻": 8174,
      "##묀": 8175,
      "##긷": 8176,
      "##뚯": 8177,
      "##쉅": 8178,
      "##쒞": 8179,
      "##だ": 8180,
      "##욹": 8181,
      "##😒": 8182,
      "##숌": 8183,
      "##쟐": 8184,
      "##В": 8185,
      "##П": 8186,
      "##Р": 8187,
      "##💳": 8188,
      "##✍": 8189,
      "##홰": 8190,
      "##⑦": 8191,
      "##フ": 8192,
      "##♠": 8193,
      "##Ⅳ": 8194,
      "##잪": 8195,
      "##뵀": 8196,
      "##🗡": 8197,
      "##👑": 8198,
      "##♨": 8199,
      "##쎘": 8200,
      "##☹": 8201,
      "##쇽": 8202,
      "##뵜": 8203,
      "##돜": 8204,
      "##젇": 8205,
      "##튠": 8206,
      "##뷱": 8207,
      "##🤡": 8208,
      "##ギ": 8209,
      "##슾": 8210,
      "##딫": 8211,
      "##뛔": 8212,
      "##닻": 8213,
      "##읖": 8214,
      "##쿳": 8215,
      "##홱": 8216,
      "##ɴ": 8217,
      "##ポ": 8218,
      "##뉜": 8219,
      "##チ": 8220,
      "##😽": 8221,
      "##킄": 8222,
      "##롷": 8223,
      "##👇": 8224,
      "##メ": 8225,
      "##∧": 8226,
      "##죨": 8227,
      "##쇳": 8228,
      "##꽐": 8229,
      "##멏": 8230,
      "##˘": 8231,
      "##캭": 8232,
      "##뮛": 8233,
      "##뭤": 8234,
      "##꽹": 8235,
      "##뭅": 8236,
      "##윱": 8237,
      "##똣": 8238,
      "##촥": 8239,
      "##옅": 8240,
      "##꽌": 8241,
      "##💬": 8242,
      "##💑": 8243,
      "##▪": 8244,
      "##떈": 8245,
      "##∑": 8246,
      "##🌽": 8247,
      "##👥": 8248,
      "##ᵀ": 8249,
      "##ゃ": 8250,
      "##솓": 8251,
      "##🎆": 8252,
      "##🌜": 8253,
      "##묫": 8254,
      "##━": 8255,
      "##◡": 8256,
      "##̩": 8257,
      "##📢": 8258,
      "##햝": 8259,
      "##🐅": 8260,
      "##젋": 8261,
      "##˝": 8262,
      "##ダ": 8263,
      "##끍": 8264,
      "##삵": 8265,
      "##ミ": 8266,
      "##쬭": 8267,
      "##🦁": 8268,
      "##뺍": 8269,
      "##찣": 8270,
      "##뱁": 8271,
      "##쫭": 8272,
      "##🔔": 8273,
      "##흣": 8274,
      "##⑧": 8275,
      "##⑩": 8276,
      "##ღ": 8277,
      "##❎": 8278,
      "##샡": 8279,
      "##そ": 8280,
      "##콸": 8281,
      "##룀": 8282,
      "##➋": 8283,
      "##켑": 8284,
      "##홑": 8285,
      "##Д": 8286,
      "##쏫": 8287,
      "##덖": 8288,
      "##톺": 8289,
      "##떱": 8290,
      "##✳": 8291,
      "##👟": 8292,
      "##튓": 8293,
      "##찎": 8294,
      "##몯": 8295,
      "##싈": 8296,
      "##봊": 8297,
      "##㈏": 8298,
      "##큿": 8299,
      "##え": 8300,
      "##묄": 8301,
      "##깸": 8302,
      "##첮": 8303,
      "##⑷": 8304,
      "##뉠": 8305,
      "##✅": 8306,
      "##짦": 8307,
      "##곈": 8308,
      "##ヒ": 8309,
      "##쯪": 8310,
      "##빩": 8311,
      "##̫": 8312,
      "##츳": 8313,
      "##띌": 8314,
      "##▫": 8315,
      "##̣": 8316,
      "##⑫": 8317,
      "##⑬": 8318,
      "##섦": 8319,
      "##˙": 8320,
      "##떢": 8321,
      "##딍": 8322,
      "##🗣": 8323,
      "##쌂": 8324,
      "##́": 8325,
      "##꼍": 8326,
      "##퇫": 8327,
      "##🌩": 8328,
      "##ⓓ": 8329,
      "##휑": 8330,
      "##븽": 8331,
      "##죷": 8332,
      "##М": 8333,
      "##˃": 8334,
      "##딋": 8335,
      "##붱": 8336,
      "##📖": 8337,
      "##㉯": 8338,
      "##🔺": 8339,
      "##꾐": 8340,
      "##뵘": 8341,
      "##Ⅴ": 8342,
      "##웸": 8343,
      "##⊙": 8344,
      "##◐": 8345,
      "##쐴": 8346,
      "##✿": 8347,
      "##흄": 8348,
      "##엷": 8349,
      "##⑵": 8350,
      "##⒝": 8351,
      "##➊": 8352,
      "##꿴": 8353,
      "##∠": 8354,
      "##С": 8355,
      "##┬": 8356,
      "##뜁": 8357,
      "##휨": 8358,
      "##죕": 8359,
      "##🐁": 8360,
      "##͡": 8361,
      "##묽": 8362,
      "##꾿": 8363,
      "##̥": 8364,
      "##뻇": 8365,
      "##⒜": 8366,
      "##묏": 8367,
      "##좥": 8368,
      "##⫬": 8369,
      "##ᴥ": 8370,
      "##㈔": 8371,
      "##⒞": 8372,
      "##⑭": 8373,
      "##ソ": 8374,
      "##퉸": 8375,
      "##𖤐": 8376,
      "##퀭": 8377,
      "##똠": 8378,
      "##↙": 8379,
      "##㉠": 8380,
      "##Δ": 8381,
      "##㎗": 8382,
      "##㉰": 8383,
      "##뙇": 8384,
      "##쾈": 8385,
      "##㉱": 8386,
      "##ⓐ": 8387,
      "##⑪": 8388,
      "##㈑": 8389,
      "##☏": 8390,
      "##ⅱ": 8391,
      "##㈐": 8392,
      "##ⓒ": 8393,
      "##㉤": 8394,
      "##㉮": 8395,
      "##❶": 8396,
      "##❷": 8397,
      "##ʔ": 8398,
      "##ⓑ": 8399,
      "##ⅰ": 8400,
      "##㉡": 8401,
      "##▨": 8402,
      "##쬔": 8403,
      "##⑸": 8404,
      "##㉣": 8405,
      "##띕": 8406,
      "##☑": 8407,
      "##∘": 8408,
      "##으로": 8409,
      "##에서": 8410,
      "##하는": 8411,
      "##했다": 8412,
      "##이다": 8413,
      "##하고": 8414,
      "있다": 8415,
      "##니다": 8416,
      "##들이": 8417,
      "있는": 8418,
      "##었다": 8419,
      "##00": 8420,
      "##지만": 8421,
      "##한다": 8422,
      "##라고": 8423,
      "사람": 8424,
      "##에게": 8425,
      "##까지": 8426,
      "##들은": 8427,
      "##다는": 8428,
      "##면서": 8429,
      "아니": 8430,
      "##는데": 8431,
      "우리": 8432,
      "##하게": 8433,
      "##다고": 8434,
      "##적인": 8435,
      "대한": 8436,
      "##부터": 8437,
      "한국": 8438,
      "##적으로": 8439,
      "##에는": 8440,
      "20": 8441,
      "국민": 8442,
      "##라는": 8443,
      "지난": 8444,
      "생각": 8445,
      "##해서": 8446,
      "##ㅋㅋ": 8447,
      "하는": 8448,
      "##습니다": 8449,
      "것이": 8450,
      "##하지": 8451,
      "그러": 8452,
      "##리고": 8453,
      "##들의": 8454,
      "##통령": 8455,
      "한다": 8456,
      "##하기": 8457,
      "때문": 8458,
      "##하다": 8459,
      "일본": 8460,
      "중국": 8461,
      "대통령": 8462,
      "##이나": 8463,
      "##았다": 8464,
      "이런": 8465,
      "것이다": 8466,
      "##대로": 8467,
      "문제": 8468,
      "것으로": 8469,
      "##하면": 8470,
      "지금": 8471,
      "정부": 8472,
      "##렇게": 8473,
      "같은": 8474,
      "미국": 8475,
      "##니까": 8476,
      "##보다": 8477,
      "##으면": 8478,
      "위해": 8479,
      "했다": 8480,
      "10": 8481,
      "ㅋㅋ": 8482,
      "말했다": 8483,
      "들어": 8484,
      "##들을": 8485,
      "##해야": 8486,
      "그런": 8487,
      "##리는": 8488,
      "##기를": 8489,
      "##였다": 8490,
      "나라": 8491,
      "문재": 8492,
      "하고": 8493,
      "201": 8494,
      "서울": 8495,
      "##자는": 8496,
      "##라도": 8497,
      "##에도": 8498,
      "##지는": 8499,
      "북한": 8500,
      "##하여": 8501,
      "19": 8502,
      "것은": 8503,
      "하나": 8504,
      "자신": 8505,
      "다른": 8506,
      "##된다": 8507,
      "경우": 8508,
      "##이고": 8509,
      "만들": 8510,
      "##리를": 8511,
      "##장은": 8512,
      "이상": 8513,
      "그래": 8514,
      "##되는": 8515,
      "##처럼": 8516,
      "이번": 8517,
      "정치": 8518,
      "##사를": 8519,
      "통해": 8520,
      "경제": 8521,
      "##지고": 8522,
      "없다": 8523,
      "아이": 8524,
      "##자가": 8525,
      "사실": 8526,
      "없는": 8527,
      "있어": 8528,
      "이제": 8529,
      "따라": 8530,
      "함께": 8531,
      "##에서는": 8532,
      "사회": 8533,
      "##주의": 8534,
      "지역": 8535,
      "필요": 8536,
      "대표": 8537,
      "그리고": 8538,
      "##혔다": 8539,
      "##도록": 8540,
      "##장을": 8541,
      "민주": 8542,
      "때문에": 8543,
      "시작": 8544,
      "##나라": 8545,
      "진짜": 8546,
      "##인이": 8547,
      "200": 8548,
      "##겠다": 8549,
      "관계": 8550,
      "가능": 8551,
      "세계": 8552,
      "##기에": 8553,
      "##입니다": 8554,
      "##세요": 8555,
      "##장이": 8556,
      "밝혔다": 8557,
      "국가": 8558,
      "하지만": 8559,
      "가장": 8560,
      "그는": 8561,
      "모두": 8562,
      "##으며": 8563,
      "아니라": 8564,
      "##졌다": 8565,
      "기업": 8566,
      "##인데": 8567,
      "##됐다": 8568,
      "이어": 8569,
      "##기가": 8570,
      "대해": 8571,
      "##기도": 8572,
      "관련": 8573,
      "##지를": 8574,
      "이라고": 8575,
      "인간": 8576,
      "##리가": 8577,
      "있었다": 8578,
      "##하며": 8579,
      "위한": 8580,
      "##가는": 8581,
      "정도": 8582,
      "것을": 8583,
      "##는다": 8584,
      "다시": 8585,
      "##성이": 8586,
      "문재인": 8587,
      "너무": 8588,
      "많은": 8589,
      "##원이": 8590,
      "상황": 8591,
      "그러나": 8592,
      "##들에게": 8593,
      "사업": 8594,
      "##이는": 8595,
      "##위원": 8596,
      "아닌": 8597,
      "##하면서": 8598,
      "##성을": 8599,
      "##기는": 8600,
      "많이": 8601,
      "##이라": 8602,
      "시간": 8603,
      "##거나": 8604,
      "검찰": 8605,
      "이후": 8606,
      "##력을": 8607,
      "모든": 8608,
      "그냥": 8609,
      "##사가": 8610,
      "등을": 8611,
      "##이지": 8612,
      "보고": 8613,
      "사용": 8614,
      "##회의": 8615,
      "##이었다": 8616,
      "##원을": 8617,
      "##어서": 8618,
      "된다": 8619,
      "이렇게": 8620,
      "모르": 8621,
      "##사는": 8622,
      "어떻": 8623,
      "지난해": 8624,
      "아무": 8625,
      "조국": 8626,
      "정말": 8627,
      "##어요": 8628,
      "있을": 8629,
      "교육": 8630,
      "##구나": 8631,
      "국내": 8632,
      "##이라고": 8633,
      "정신": 8634,
      "현재": 8635,
      "##민국": 8636,
      "이날": 8637,
      "이유": 8638,
      "12": 8639,
      "##정을": 8640,
      "##려고": 8641,
      "어떻게": 8642,
      "##한테": 8643,
      "다음": 8644,
      "##네요": 8645,
      "어떤": 8646,
      "##되고": 8647,
      "ㅋㅋㅋ": 8648,
      "있었": 8649,
      "결과": 8650,
      "이미": 8651,
      "특히": 8652,
      "##기업": 8653,
      "진행": 8654,
      "##원은": 8655,
      "11": 8656,
      "30": 8657,
      "마음": 8658,
      "##합니다": 8659,
      "내가": 8660,
      "나는": 8661,
      "이용": 8662,
      "##화를": 8663,
      "그렇": 8664,
      "##000": 8665,
      "대한민국": 8666,
      "최근": 8667,
      "##지도": 8668,
      "프로": 8669,
      "지원": 8670,
      "##상을": 8671,
      "경찰": 8672,
      "돌아": 8673,
      "아직": 8674,
      "##인가": 8675,
      "사이": 8676,
      "자유": 8677,
      "그렇게": 8678,
      "나오": 8679,
      "올해": 8680,
      "후보": 8681,
      "하지": 8682,
      "##로운": 8683,
      "##어야": 8684,
      "##시키": 8685,
      "##자의": 8686,
      "##같은": 8687,
      "그것": 8688,
      "##자를": 8689,
      "자기": 8690,
      "중요": 8691,
      "##스트": 8692,
      "얼마": 8693,
      "##들도": 8694,
      "##다가": 8695,
      "좋은": 8696,
      "무슨": 8697,
      "민주당": 8698,
      "##어나": 8699,
      "##0년": 8700,
      "##이가": 8701,
      "받아": 8702,
      "##렸다": 8703,
      "계속": 8704,
      "바로": 8705,
      "계획": 8706,
      "##들과": 8707,
      "사건": 8708,
      "##주는": 8709,
      "설명": 8710,
      "사람이": 8711,
      "##으니": 8712,
      "되는": 8713,
      "모습": 8714,
      "피해": 8715,
      "그래서": 8716,
      "##해라": 8717,
      "15": 8718,
      "##지가": 8719,
      "조사": 8720,
      "##이라는": 8721,
      "##에서도": 8722,
      "않고": 8723,
      "처음": 8724,
      "라고": 8725,
      "있다는": 8726,
      "수준": 8727,
      "##만원": 8728,
      "연구": 8729,
      "##시아": 8730,
      "이야": 8731,
      "삼성": 8732,
      "##그램": 8733,
      "최고": 8734,
      "전문": 8735,
      "당시": 8736,
      "학생": 8737,
      "##시간": 8738,
      "정권": 8739,
      "지지": 8740,
      "역시": 8741,
      "##정부": 8742,
      "내용": 8743,
      "해야": 8744,
      "다양": 8745,
      "조선": 8746,
      "##했던": 8747,
      "##르면": 8748,
      "나타": 8749,
      "여러": 8750,
      "시장": 8751,
      "보면": 8752,
      "당신": 8753,
      "어디": 8754,
      "기록": 8755,
      "##비스": 8756,
      "18": 8757,
      "운영": 8758,
      "예정": 8759,
      "이해": 8760,
      "이러": 8761,
      "##수가": 8762,
      "대학": 8763,
      "##서는": 8764,
      "때문이다": 8765,
      "##명이": 8766,
      "않는": 8767,
      "대상": 8768,
      "좋아": 8769,
      "##기로": 8770,
      "투자": 8771,
      "##인지": 8772,
      "정책": 8773,
      "않은": 8774,
      "만들어": 8775,
      "언론": 8776,
      "##력이": 8777,
      "이를": 8778,
      "##레기": 8779,
      "선거": 8780,
      "##대가": 8781,
      "100": 8782,
      "떨어": 8783,
      "##운데": 8784,
      "살아": 8785,
      "찾아": 8786,
      "보여": 8787,
      "##는거": 8788,
      "##식을": 8789,
      "개발": 8790,
      "##리에": 8791,
      "기술": 8792,
      "대구": 8793,
      "자신의": 8794,
      "##사람": 8795,
      "수도": 8796,
      "##잖아": 8797,
      "동안": 8798,
      "##없이": 8799,
      "없이": 8800,
      "경기": 8801,
      "오늘": 8802,
      "##인의": 8803,
      "##사의": 8804,
      "잘못": 8805,
      "여성": 8806,
      "##가지": 8807,
      "의미": 8808,
      "알려": 8809,
      "##인다": 8810,
      "결정": 8811,
      "어려": 8812,
      "##는지": 8813,
      "직접": 8814,
      "##머니": 8815,
      "발생": 8816,
      "관심": 8817,
      "가족": 8818,
      "##동을": 8819,
      "##회를": 8820,
      "이게": 8821,
      "결국": 8822,
      "우리나라": 8823,
      "문화": 8824,
      "어느": 8825,
      "또한": 8826,
      "##억원": 8827,
      "있고": 8828,
      "청와": 8829,
      "##수는": 8830,
      "책임": 8831,
      "아니다": 8832,
      "##사업": 8833,
      "주장": 8834,
      "##치는": 8835,
      "##왔다": 8836,
      "발표": 8837,
      "시민": 8838,
      "이라": 8839,
      "학교": 8840,
      "##소리": 8841,
      "댓글": 8842,
      "##정은": 8843,
      "참여": 8844,
      "##보고": 8845,
      "확인": 8846,
      "##학교": 8847,
      "##대를": 8848,
      "사랑": 8849,
      "일부": 8850,
      "##들아": 8851,
      "평가": 8852,
      "이에": 8853,
      "않았다": 8854,
      "같이": 8855,
      "국제": 8856,
      "물론": 8857,
      "제공": 8858,
      "여기": 8859,
      "새로운": 8860,
      "일반": 8861,
      "따르면": 8862,
      "다양한": 8863,
      "말이": 8864,
      "추진": 8865,
      "전국": 8866,
      "영화": 8867,
      "의원": 8868,
      "##되어": 8869,
      "인정": 8870,
      "##드는": 8871,
      "방송": 8872,
      "##났다": 8873,
      "##있는": 8874,
      "금융": 8875,
      "##동안": 8876,
      "현대": 8877,
      "가운데": 8878,
      "관계자는": 8879,
      "##의를": 8880,
      "##씨는": 8881,
      "##도를": 8882,
      "##명을": 8883,
      "##근혜": 8884,
      "##치를": 8885,
      "##레이": 8886,
      "##상이": 8887,
      "앞으로": 8888,
      "하면": 8889,
      "세금": 8890,
      "##위를": 8891,
      "것도": 8892,
      "##시는": 8893,
      "제대로": 8894,
      "그런데": 8895,
      "##인은": 8896,
      "##아서": 8897,
      "##시장": 8898,
      "##하겠": 8899,
      "요구": 8900,
      "않았": 8901,
      "그럼": 8902,
      "정보": 8903,
      "준비": 8904,
      "##제로": 8905,
      "공개": 8906,
      "##이었": 8907,
      "##체가": 8908,
      "그의": 8909,
      "국회": 8910,
      "사고": 8911,
      "감독": 8912,
      "기자": 8913,
      "##더니": 8914,
      "등의": 8915,
      "##전에": 8916,
      "수사": 8917,
      "제품": 8918,
      "##스로": 8919,
      "얼마나": 8920,
      "##거리": 8921,
      "부산": 8922,
      "##으나": 8923,
      "그만": 8924,
      "이름": 8925,
      "있다고": 8926,
      "알고": 8927,
      "##진다": 8928,
      "이것": 8929,
      "##부는": 8930,
      "지적": 8931,
      "먼저": 8932,
      "##밖에": 8933,
      "##스타": 8934,
      "청와대": 8935,
      "기대": 8936,
      "마련": 8937,
      "##스크": 8938,
      "방법": 8939,
      "포함": 8940,
      "장관": 8941,
      "외국": 8942,
      "##했다고": 8943,
      "여자": 8944,
      "13": 8945,
      "##수를": 8946,
      "##OO": 8947,
      "25": 8948,
      "##려는": 8949,
      "인터": 8950,
      "누가": 8951,
      "기준": 8952,
      "##했고": 8953,
      "저런": 8954,
      "박근혜": 8955,
      "판매": 8956,
      "정상": 8957,
      "부분": 8958,
      "##점을": 8959,
      "가지": 8960,
      "최대": 8961,
      "얼굴": 8962,
      "오후": 8963,
      "##교육": 8964,
      "50": 8965,
      "현실": 8966,
      "##부분": 8967,
      "##해서는": 8968,
      "등이": 8969,
      "성공": 8970,
      "##없는": 8971,
      "##랜드": 8972,
      "16": 8973,
      "무엇": 8974,
      "##인을": 8975,
      "해외": 8976,
      "상태": 8977,
      "가격": 8978,
      "전체": 8979,
      "경쟁": 8980,
      "##하자": 8981,
      "판단": 8982,
      "있는데": 8983,
      "분석": 8984,
      "##정이": 8985,
      "생산": 8986,
      "##마다": 8987,
      "##해도": 8988,
      "기사": 8989,
      "아주": 8990,
      "##대표": 8991,
      "##놓고": 8992,
      "나온": 8993,
      "하루": 8994,
      "##어도": 8995,
      "해결": 8996,
      "##도가": 8997,
      "##전을": 8998,
      "##이냐": 8999,
      "열린": 9000,
      "##위원회": 9001,
      "##은행": 9002,
      "개인": 9003,
      "지나": 9004,
      "##도로": 9005,
      "##제를": 9006,
      "환경": 9007,
      "문재앙": 9008,
      "##한다고": 9009,
      "14": 9010,
      "미래": 9011,
      "지방": 9012,
      "강조": 9013,
      "한편": 9014,
      "말을": 9015,
      "사진": 9016,
      "일이": 9017,
      "더욱": 9018,
      "영향": 9019,
      "##주고": 9020,
      "##르는": 9021,
      "##안을": 9022,
      "있습니다": 9023,
      "생활": 9024,
      "드러": 9025,
      "누구": 9026,
      "서비스": 9027,
      "중심": 9028,
      "증가": 9029,
      "근데": 9030,
      "##지역": 9031,
      "선수": 9032,
      "가지고": 9033,
      "##당이": 9034,
      "받고": 9035,
      "내려": 9036,
      "##자로": 9037,
      "##리아": 9038,
      "##치고": 9039,
      "##되지": 9040,
      "##시에": 9041,
      "사람들이": 9042,
      "않을": 9043,
      "언제": 9044,
      "##금을": 9045,
      "산업": 9046,
      "##하는데": 9047,
      "##센터": 9048,
      "그녀": 9049,
      "##장의": 9050,
      "##아야": 9051,
      "부모": 9052,
      "우리가": 9053,
      "같다": 9054,
      "노동": 9055,
      "##러운": 9056,
      "##라이": 9057,
      "반대": 9058,
      "##하네": 9059,
      "좌파": 9060,
      "한번": 9061,
      "소비": 9062,
      "##시켜": 9063,
      "##자들이": 9064,
      "있도록": 9065,
      "그리": 9066,
      "##장에서": 9067,
      "##한다는": 9068,
      "만나": 9069,
      "##원의": 9070,
      "주민": 9071,
      "##이야": 9072,
      "없었다": 9073,
      "구성": 9074,
      "17": 9075,
      "어린": 9076,
      "##하나": 9077,
      "##겠지": 9078,
      "라는": 9079,
      "높은": 9080,
      "##리지": 9081,
      "규모": 9082,
      "보내": 9083,
      "##기관": 9084,
      "##음을": 9085,
      "##스럽": 9086,
      "전망": 9087,
      "완전": 9088,
      "자한": 9089,
      "공동": 9090,
      "역사": 9091,
      "대부분": 9092,
      "##정한": 9093,
      "고객": 9094,
      "##다면": 9095,
      "또는": 9096,
      "##명의": 9097,
      "없어": 9098,
      "대통령이": 9099,
      "존재": 9100,
      "##선을": 9101,
      "만큼": 9102,
      "이라며": 9103,
      "올라": 9104,
      "됐다": 9105,
      "##식이": 9106,
      "##스는": 9107,
      "친구": 9108,
      "보인다": 9109,
      "##장에": 9110,
      "##들어": 9111,
      "효과": 9112,
      "소리": 9113,
      "안전": 9114,
      "건강": 9115,
      "선택": 9116,
      "##마트": 9117,
      "제발": 9118,
      "조금": 9119,
      "추가": 9120,
      "##이트": 9121,
      "내년": 9122,
      "##이며": 9123,
      "##스를": 9124,
      "해당": 9125,
      "##시다": 9126,
      "##5년": 9127,
      "이러한": 9128,
      "##파트": 9129,
      "특별": 9130,
      "과정": 9131,
      "##부를": 9132,
      "역할": 9133,
      "##하던": 9134,
      "##권을": 9135,
      "않는다": 9136,
      "##개월": 9137,
      "예상": 9138,
      "##같이": 9139,
      "##거지": 9140,
      "쓰레기": 9141,
      "자연": 9142,
      "##말고": 9143,
      "빨갱": 9144,
      "크게": 9145,
      "오는": 9146,
      "주요": 9147,
      "방문": 9148,
      "비판": 9149,
      "못한": 9150,
      "##자들": 9151,
      "얘기": 9152,
      "세상": 9153,
      "관리": 9154,
      "##물을": 9155,
      "문제가": 9156,
      "강화": 9157,
      "##경제": 9158,
      "유지": 9159,
      "확대": 9160,
      "활동": 9161,
      "##동차": 9162,
      "우리는": 9163,
      "서로": 9164,
      "##단체": 9165,
      "정부가": 9166,
      "##것도": 9167,
      "##럼프": 9168,
      "기존": 9169,
      "활용": 9170,
      "해도": 9171,
      "과거": 9172,
      "도시": 9173,
      "중요한": 9174,
      "적용": 9175,
      "##이네": 9176,
      "OOO": 9177,
      "##문에": 9178,
      "정의": 9179,
      "보수": 9180,
      "##산업": 9181,
      "40": 9182,
      "##이를": 9183,
      "아니고": 9184,
      "##세를": 9185,
      "회사": 9186,
      "##이면": 9187,
      "합니다": 9188,
      "경험": 9189,
      "에서": 9190,
      "이는": 9191,
      "##하냐": 9192,
      "##당은": 9193,
      "받은": 9194,
      "비롯": 9195,
      "스스로": 9196,
      "##가가": 9197,
      "##었던": 9198,
      "상대": 9199,
      "##므로": 9200,
      "트럼프": 9201,
      "##연구": 9202,
      "만든": 9203,
      "프로그램": 9204,
      "##되면": 9205,
      "작품": 9206,
      "해서": 9207,
      "인천": 9208,
      "예정이다": 9209,
      "##계를": 9210,
      "##로나": 9211,
      "##감을": 9212,
      "당연": 9213,
      "##2년": 9214,
      "거짓": 9215,
      "기본": 9216,
      "인사": 9217,
      "사람은": 9218,
      "##조사": 9219,
      "##대에": 9220,
      "##8년": 9221,
      "의견": 9222,
      "자리": 9223,
      "##정권": 9224,
      "도움": 9225,
      "##스템": 9226,
      "외교": 9227,
      "성장": 9228,
      "##료를": 9229,
      "아버": 9230,
      "199": 9231,
      "적극": 9232,
      "##민주": 9233,
      "말고": 9234,
      "##운동": 9235,
      "표현": 9236,
      "##7년": 9237,
      "##4년": 9238,
      "광주": 9239,
      "그게": 9240,
      "넘어": 9241,
      "국회의": 9242,
      "##보는": 9243,
      "##보면": 9244,
      "요즘": 9245,
      "##문을": 9246,
      "구조": 9247,
      "##서를": 9248,
      "더불": 9249,
      "##원에": 9250,
      "나가": 9251,
      "##과의": 9252,
      "주변": 9253,
      "설치": 9254,
      "기간": 9255,
      "21": 9256,
      "범죄": 9257,
      "##화가": 9258,
      "##르고": 9259,
      "##6년": 9260,
      "경영": 9261,
      "나서": 9262,
      "##부가": 9263,
      "##중에": 9264,
      "노력": 9265,
      "분야": 9266,
      "있지만": 9267,
      "##더라도": 9268,
      "갖고": 9269,
      "이루": 9270,
      "수출": 9271,
      "##하라": 9272,
      "고려": 9273,
      "##사회": 9274,
      "국민의": 9275,
      "공산": 9276,
      "조직": 9277,
      "##가를": 9278,
      "지속": 9279,
      "한다는": 9280,
      "등에": 9281,
      "##3년": 9282,
      "##지지": 9283,
      "사람들": 9284,
      "공무": 9285,
      "거의": 9286,
      "24": 9287,
      "전쟁": 9288,
      "##대는": 9289,
      "##느냐": 9290,
      "배우": 9291,
      "이야기": 9292,
      "##자인": 9293,
      "오전": 9294,
      "앞서": 9295,
      "##지로": 9296,
      "##갔다": 9297,
      "세월": 9298,
      "우선": 9299,
      "일을": 9300,
      "구속": 9301,
      "##더라": 9302,
      "마지": 9303,
      "##스가": 9304,
      "##이란": 9305,
      "##했지만": 9306,
      "여행": 9307,
      "발전": 9308,
      "신천": 9309,
      "위원": 9310,
      "여론": 9311,
      "##지에": 9312,
      "##자리": 9313,
      "##을까": 9314,
      "상승": 9315,
      "##나는": 9316,
      "아닌가": 9317,
      "결혼": 9318,
      "##어난": 9319,
      "##동산": 9320,
      "아파트": 9321,
      "##냈다": 9322,
      "##야지": 9323,
      "절대": 9324,
      "관광": 9325,
      "어렵": 9326,
      "그때": 9327,
      "부담": 9328,
      "##업체": 9329,
      "대비": 9330,
      "##시설": 9331,
      "##거다": 9332,
      "참석": 9333,
      "##이라도": 9334,
      "남자": 9335,
      "설명했다": 9336,
      "비교": 9337,
      "##시고": 9338,
      "되어": 9339,
      "친일": 9340,
      "중앙": 9341,
      "집중": 9342,
      "엄마": 9343,
      "##하였다": 9344,
      "상품": 9345,
      "##려면": 9346,
      "탄핵": 9347,
      "운동": 9348,
      "없고": 9349,
      "##도는": 9350,
      "되고": 9351,
      "상당": 9352,
      "아직도": 9353,
      "목표": 9354,
      "스타": 9355,
      "필요한": 9356,
      "공격": 9357,
      "국정": 9358,
      "업무": 9359,
      "건설": 9360,
      "이건": 9361,
      "##가고": 9362,
      "##로부터": 9363,
      "##적이": 9364,
      "그동안": 9365,
      "빨리": 9366,
      "마지막": 9367,
      "##린다": 9368,
      "##대의": 9369,
      "힘들": 9370,
      "우려": 9371,
      "위험": 9372,
      "유럽": 9373,
      "##나요": 9374,
      "##다니": 9375,
      "##ㅋㅋㅋㅋ": 9376,
      "##히려": 9377,
      "##위에": 9378,
      "##식으로": 9379,
      "##로는": 9380,
      "나와": 9381,
      "##겠다는": 9382,
      "##이스": 9383,
      "자한당": 9384,
      "##문화": 9385,
      "예산": 9386,
      "##9년": 9387,
      "이뤄": 9388,
      "더불어": 9389,
      "기억": 9390,
      "대통령은": 9391,
      "전략": 9392,
      "보다": 9393,
      "ㅎㅎ": 9394,
      "오히려": 9395,
      "면서": 9396,
      "22": 9397,
      "못하고": 9398,
      "출신": 9399,
      "##대한": 9400,
      "불법": 9401,
      "교수": 9402,
      "아베": 9403,
      "개선": 9404,
      "##가서": 9405,
      "빨갱이": 9406,
      "보도": 9407,
      "##내는": 9408,
      "조작": 9409,
      "감사": 9410,
      "##에선": 9411,
      "부족": 9412,
      "분명": 9413,
      "의료": 9414,
      "행동": 9415,
      "##그룹": 9416,
      "##업을": 9417,
      "대신": 9418,
      "두고": 9419,
      "있던": 9420,
      "미친": 9421,
      "1년": 9422,
      "##임을": 9423,
      "##원에서": 9424,
      "제1": 9425,
      "마스크": 9426,
      "혐의": 9427,
      "바람": 9428,
      "각각": 9429,
      "##1년": 9430,
      "나라가": 9431,
      "지난달": 9432,
      "정부는": 9433,
      "##국민": 9434,
      "##으면서": 9435,
      "확보": 9436,
      "##정에": 9437,
      "않아": 9438,
      "부동산": 9439,
      "##장관": 9440,
      "코로나": 9441,
      "##되었다": 9442,
      "##개발": 9443,
      "사는": 9444,
      "##er": 9445,
      "으로": 9446,
      "지켜": 9447,
      "행사": 9448,
      "보는": 9449,
      "알아": 9450,
      "대응": 9451,
      "23": 9452,
      "ㅉㅉ": 9453,
      "##씨가": 9454,
      "하는데": 9455,
      "롯데": 9456,
      "김정은": 9457,
      "이거": 9458,
      "##하니": 9459,
      "발견": 9460,
      "##도의": 9461,
      "##정책": 9462,
      "평균": 9463,
      "그대로": 9464,
      "##오는": 9465,
      "##자들은": 9466,
      "젊은": 9467,
      "거래": 9468,
      "시즌": 9469,
      "가까": 9470,
      "글로": 9471,
      "직원": 9472,
      "지도": 9473,
      "총선": 9474,
      "기다": 9475,
      "##트를": 9476,
      "재판": 9477,
      "##라면": 9478,
      "##장과": 9479,
      "##소를": 9480,
      "실시": 9481,
      "##했는데": 9482,
      "제주": 9483,
      "시행": 9484,
      "매우": 9485,
      "의혹": 9486,
      "만에": 9487,
      "##랐다": 9488,
      "##드시": 9489,
      "자체": 9490,
      "##하기로": 9491,
      "기능": 9492,
      "##거든": 9493,
      "관한": 9494,
      "##관리": 9495,
      "##하다고": 9496,
      "##기술": 9497,
      "사라": 9498,
      "##쳤다": 9499,
      "##하겠다": 9500,
      "전혀": 9501,
      "##했다는": 9502,
      "##하지만": 9503,
      "##관계": 9504,
      "그가": 9505,
      "부정": 9506,
      "제가": 9507,
      "##라인": 9508,
      "##하다는": 9509,
      "##물이": 9510,
      "##으로써": 9511,
      "##일부터": 9512,
      "전에": 9513,
      "영국": 9514,
      "가는": 9515,
      "따른": 9516,
      "분위": 9517,
      "##보다는": 9518,
      "인터넷": 9519,
      "##두고": 9520,
      "그래도": 9521,
      "움직": 9522,
      "계획이다": 9523,
      "##회가": 9524,
      "##디어": 9525,
      "##시민": 9526,
      "##하거나": 9527,
      "행복": 9528,
      "핵심": 9529,
      "충분": 9530,
      "차지": 9531,
      "보호": 9532,
      "##약을": 9533,
      "치료": 9534,
      "하여": 9535,
      "##었고": 9536,
      "공급": 9537,
      "##기고": 9538,
      "개혁": 9539,
      "선동": 9540,
      "않다": 9541,
      "있으며": 9542,
      "되었다": 9543,
      "정도로": 9544,
      "따라서": 9545,
      "있게": 9546,
      "가능성이": 9547,
      "전문가": 9548,
      "제기": 9549,
      "##제가": 9550,
      "등으로": 9551,
      "자동차": 9552,
      "##봐라": 9553,
      "가진": 9554,
      "모습을": 9555,
      "##치가": 9556,
      "못하는": 9557,
      "27": 9558,
      "##일이": 9559,
      "##해주": 9560,
      "##생활": 9561,
      "LG": 9562,
      "사실을": 9563,
      "##일까지": 9564,
      "위해서": 9565,
      "반면": 9566,
      "##른다": 9567,
      "대선": 9568,
      "주는": 9569,
      "도입": 9570,
      "걱정": 9571,
      "의원은": 9572,
      "4월": 9573,
      "##학생": 9574,
      "엄청": 9575,
      "말씀": 9576,
      "##성과": 9577,
      "있지": 9578,
      "전했다": 9579,
      "스마트": 9580,
      "26": 9581,
      "많다": 9582,
      "##개를": 9583,
      "통합": 9584,
      "변호": 9585,
      "대상으로": 9586,
      "##수록": 9587,
      "아니면": 9588,
      "보니": 9589,
      "매출": 9590,
      "다니": 9591,
      "세월호": 9592,
      "##이에": 9593,
      "##스의": 9594,
      "먹고": 9595,
      "##상의": 9596,
      "##로서": 9597,
      "중소": 9598,
      "글로벌": 9599,
      "사과": 9600,
      "제시": 9601,
      "##구를": 9602,
      "##비를": 9603,
      "##지원": 9604,
      "2년": 9605,
      "##림픽": 9606,
      "28": 9607,
      "수가": 9608,
      "국민들": 9609,
      "##조건": 9610,
      "다르": 9611,
      "니가": 9612,
      "##일을": 9613,
      "##누리": 9614,
      "##이기": 9615,
      "이와": 9616,
      "반드시": 9617,
      "있기": 9618,
      "집단": 9619,
      "사람들은": 9620,
      "작은": 9621,
      "받을": 9622,
      "생각이": 9623,
      "##구만": 9624,
      "돈을": 9625,
      "##장으로": 9626,
      "6월": 9627,
      "바라": 9628,
      "##on": 9629,
      "선정": 9630,
      "##내고": 9631,
      "##들에": 9632,
      "업체": 9633,
      "##와의": 9634,
      "가져": 9635,
      "합의": 9636,
      "안보": 9637,
      "##거야": 9638,
      "##일보": 9639,
      "일단": 9640,
      "##있다": 9641,
      "조성": 9642,
      "있어서": 9643,
      "##지의": 9644,
      "이라는": 9645,
      "브랜드": 9646,
      "##하도록": 9647,
      "남북": 9648,
      "선생": 9649,
      "정당": 9650,
      "##사에": 9651,
      "##만이": 9652,
      "은행": 9653,
      "##우는": 9654,
      "신청": 9655,
      "논란": 9656,
      "청년": 9657,
      "행정": 9658,
      "##원으로": 9659,
      "나도": 9660,
      "논의": 9661,
      "정확": 9662,
      "##었는데": 9663,
      "수익": 9664,
      "대해서": 9665,
      "##자들의": 9666,
      "실제": 9667,
      "인생": 9668,
      "##성은": 9669,
      "제작": 9670,
      "순간": 9671,
      "지급": 9672,
      "하면서": 9673,
      "##도시": 9674,
      "3월": 9675,
      "변화": 9676,
      "불가": 9677,
      "##선거": 9678,
      "증거": 9679,
      "문제를": 9680,
      "##회는": 9681,
      "처벌": 9682,
      "대체": 9683,
      "자신이": 9684,
      "달라": 9685,
      "##만큼": 9686,
      "##돼지": 9687,
      "달리": 9688,
      "5월": 9689,
      "공공": 9690,
      "국민이": 9691,
      "##분이": 9692,
      "사무": 9693,
      "평화": 9694,
      "##이어": 9695,
      "##했을": 9696,
      "되면": 9697,
      "러시아": 9698,
      "역할을": 9699,
      "받는": 9700,
      "##기의": 9701,
      "공간": 9702,
      "받았다": 9703,
      "최소": 9704,
      "##심을": 9705,
      "때는": 9706,
      "사망": 9707,
      "##위는": 9708,
      "##이터": 9709,
      "##아요": 9710,
      "번째": 9711,
      "##마라": 9712,
      "다만": 9713,
      "##구요": 9714,
      "대책": 9715,
      "강조했다": 9716,
      "신고": 9717,
      "공연": 9718,
      "##달러": 9719,
      "3년": 9720,
      "확실": 9721,
      "##프로": 9722,
      "어머니": 9723,
      "SK": 9724,
      "희망": 9725,
      "##새끼": 9726,
      "프랑": 9727,
      "한다고": 9728,
      "느낌": 9729,
      "대표는": 9730,
      "60": 9731,
      "##아니": 9732,
      "차량": 9733,
      "정부의": 9734,
      "시스템": 9735,
      "##자와": 9736,
      "각종": 9737,
      "영향을": 9738,
      "##움을": 9739,
      "공부": 9740,
      "수입": 9741,
      "투표": 9742,
      "##환경": 9743,
      "머리": 9744,
      "남편": 9745,
      "이전": 9746,
      "독일": 9747,
      "아니냐": 9748,
      "니들": 9749,
      "오래": 9750,
      "밝혀": 9751,
      "검사": 9752,
      "아마": 9753,
      "개최": 9754,
      "음악": 9755,
      "##심히": 9756,
      "새끼": 9757,
      "##구가": 9758,
      "맞는": 9759,
      "##없다": 9760,
      "##실을": 9761,
      "쉽게": 9762,
      "가서": 9763,
      "모르는": 9764,
      "보험": 9765,
      "##이니": 9766,
      "##어진": 9767,
      "##개혁": 9768,
      "게임": 9769,
      "저는": 9770,
      "##정도": 9771,
      "고민": 9772,
      "수밖에": 9773,
      "이동": 9774,
      "주택": 9775,
      "##자기": 9776,
      "##먹고": 9777,
      "##부의": 9778,
      "신천지": 9779,
      "##수의": 9780,
      "아무리": 9781,
      "영업": 9782,
      "##in": 9783,
      "9월": 9784,
      "과학": 9785,
      "싶은": 9786,
      "##이지만": 9787,
      "##이랑": 9788,
      "##겠네": 9789,
      "##정보": 9790,
      "기관": 9791,
      "##00만": 9792,
      "제2": 9793,
      "혼자": 9794,
      "##위가": 9795,
      "##받고": 9796,
      "대단": 9797,
      "처리": 9798,
      "여전": 9799,
      "공무원": 9800,
      "최초": 9801,
      "29": 9802,
      "신경": 9803,
      "바이": 9804,
      "대형": 9805,
      "대깨": 9806,
      "뭐가": 9807,
      "##보니": 9808,
      "참가": 9809,
      "##드를": 9810,
      "비슷": 9811,
      "해라": 9812,
      "7월": 9813,
      "##회에": 9814,
      "##인들": 9815,
      "##하는거": 9816,
      "소속": 9817,
      "성과": 9818,
      "##부에": 9819,
      "전통": 9820,
      "##리의": 9821,
      "발언": 9822,
      "##롭게": 9823,
      "##인들이": 9824,
      "과정에서": 9825,
      "되지": 9826,
      "공식": 9827,
      "어려운": 9828,
      "독립": 9829,
      "들어가": 9830,
      "##이자": 9831,
      "한심": 9832,
      "좌빨": 9833,
      "##an": 9834,
      "고용": 9835,
      "##겠습니다": 9836,
      "##회에서": 9837,
      "##겠지만": 9838,
      "새누리": 9839,
      "어쩌": 9840,
      "##너지": 9841,
      "##님이": 9842,
      "권력": 9843,
      "종교": 9844,
      "##단을": 9845,
      "##성에": 9846,
      "##사와": 9847,
      "비용": 9848,
      "##한거": 9849,
      "검토": 9850,
      "시절": 9851,
      "##율이": 9852,
      "동시에": 9853,
      "경기도": 9854,
      "##간다": 9855,
      "##으로는": 9856,
      "자식": 9857,
      "사회적": 9858,
      "##겠다고": 9859,
      "10월": 9860,
      "##란다": 9861,
      "##세계": 9862,
      "못했다": 9863,
      "광고": 9864,
      "전부": 9865,
      "지금까지": 9866,
      "##리그": 9867,
      "소득": 9868,
      "##아가": 9869,
      "##소년": 9870,
      "라며": 9871,
      "##개의": 9872,
      "##적을": 9873,
      "노래": 9874,
      "##하기도": 9875,
      "##습니까": 9876,
      "나라를": 9877,
      "그걸": 9878,
      "유명": 9879,
      "없을": 9880,
      "전달": 9881,
      "놓고": 9882,
      "가짜": 9883,
      "장기": 9884,
      "단체": 9885,
      "사기": 9886,
      "##안이": 9887,
      "##섰다": 9888,
      "불과": 9889,
      "연결": 9890,
      "##전자": 9891,
      "구체": 9892,
      "비해": 9893,
      "지키": 9894,
      "없다는": 9895,
      "대통령의": 9896,
      "##대체": 9897,
      "무능": 9898,
      "알려졌다": 9899,
      "##겼다": 9900,
      "강력": 9901,
      "선보": 9902,
      "사례": 9903,
      "주고": 9904,
      "대깨문": 9905,
      "열심히": 9906,
      "##으로서": 9907,
      "심각": 9908,
      "##국의": 9909,
      "##하였": 9910,
      "##포츠": 9911,
      "제일": 9912,
      "단순": 9913,
      "느끼": 9914,
      "##하시": 9915,
      "대출": 9916,
      "12월": 9917,
      "사태": 9918,
      "법무": 9919,
      "안타": 9920,
      "##점이": 9921,
      "파악": 9922,
      "방향": 9923,
      "생각을": 9924,
      "8월": 9925,
      "##차를": 9926,
      "##시키는": 9927,
      "국방": 9928,
      "강남": 9929,
      "주목": 9930,
      "국민들이": 9931,
      "##리면": 9932,
      "위치": 9933,
      "요청": 9934,
      "어찌": 9935,
      "소개": 9936,
      "주식": 9937,
      "선발": 9938,
      "##보험": 9939,
      "##텐데": 9940,
      "198": 9941,
      "1월": 9942,
      "##기사": 9943,
      "끌어": 9944,
      "하늘": 9945,
      "재앙": 9946,
      "##예요": 9947,
      "아시아": 9948,
      "그림": 9949,
      "항상": 9950,
      "공정": 9951,
      "국민을": 9952,
      "협력": 9953,
      "감소": 9954,
      "##상에": 9955,
      "받았": 9956,
      "거짓말": 9957,
      "안정": 9958,
      "교통": 9959,
      "##라마": 9960,
      "의해": 9961,
      "대변": 9962,
      "싶다": 9963,
      "##지면": 9964,
      "제외": 9965,
      "힘을": 9966,
      "최저": 9967,
      "##지요": 9968,
      "인해": 9969,
      "황교": 9970,
      "시간이": 9971,
      "아래": 9972,
      "최종": 9973,
      "있으면": 9974,
      "##행을": 9975,
      "##상은": 9976,
      "민족": 9977,
      "너희": 9978,
      "반영": 9979,
      "독재": 9980,
      "판결": 9981,
      "미국의": 9982,
      "이들은": 9983,
      "##ㅋㅋㅋ": 9984,
      "잡아": 9985,
      "##감이": 9986,
      "##우고": 9987,
      "##스타그램": 9988,
      "의사": 9989,
      "##심이": 9990,
      "입장": 9991,
      "사람을": 9992,
      "불안": 9993,
      "실제로": 9994,
      "##난다": 9995,
      "국회의원": 9996,
      "##한국": 9997,
      "유치": 9998,
      "##격을": 9999,
      "##자에게": 10000,
      "##BS": 10001,
      "떠나": 10002,
      "70": 10003,
      "도대체": 10004,
      "민간": 10005,
      "##까요": 10006,
      "대가": 10007,
      "시작했다": 10008,
      "계약": 10009,
      "만드는": 10010,
      "모델": 10011,
      "##등학교": 10012,
      "거기": 10013,
      "출시": 10014,
      "가슴": 10015,
      "가입": 10016,
      "이끌": 10017,
      "이익": 10018,
      "하다": 10019,
      "지금은": 10020,
      "하기": 10021,
      "##웠다": 10022,
      "불구": 10023,
      "들고": 10024,
      "높아": 10025,
      "이명": 10026,
      "형태": 10027,
      "##국이": 10028,
      "##주택": 10029,
      "통일": 10030,
      "오른": 10031,
      "아는": 10032,
      "##사일": 10033,
      "##르게": 10034,
      "아침": 10035,
      "##위로": 10036,
      "여전히": 10037,
      "대해서는": 10038,
      "노조": 10039,
      "##사로": 10040,
      "##리로": 10041,
      "속에서": 10042,
      "##세가": 10043,
      "훨씬": 10044,
      "나온다": 10045,
      "무조건": 10046,
      "##잖아요": 10047,
      "원래": 10048,
      "##시가": 10049,
      "마찬": 10050,
      "10년": 10051,
      "본격": 10052,
      "##만을": 10053,
      "##리스": 10054,
      "지하": 10055,
      "##했습니다": 10056,
      "##인트": 10057,
      "##관이": 10058,
      "보유": 10059,
      "토착": 10060,
      "##분을": 10061,
      "##사고": 10062,
      "##스터": 10063,
      "##으니까": 10064,
      "어린이": 10065,
      "뉴스": 10066,
      "혁신": 10067,
      "나타났다": 10068,
      "인도": 10069,
      "중심으로": 10070,
      "반응": 10071,
      "진보": 10072,
      "##국가": 10073,
      "##거래": 10074,
      "##적이고": 10075,
      "대기업": 10076,
      "##리기": 10077,
      "문제는": 10078,
      "밖에": 10079,
      "전화": 10080,
      "구축": 10081,
      "진출": 10082,
      "원내": 10083,
      "##준다": 10084,
      "불러": 10085,
      "생각해": 10086,
      "하락": 10087,
      "방침": 10088,
      "##시킨": 10089,
      "모양": 10090,
      "적폐": 10091,
      "31": 10092,
      "##법을": 10093,
      "군사": 10094,
      "장애": 10095,
      "아름": 10096,
      "2월": 10097,
      "##과는": 10098,
      "시설": 10099,
      "경남": 10100,
      "우리의": 10101,
      "수요": 10102,
      "##회담": 10103,
      "##하세요": 10104,
      "좋다": 10105,
      "설립": 10106,
      "##함을": 10107,
      "시키": 10108,
      "1만": 10109,
      "이래": 10110,
      "##자에": 10111,
      "##당의": 10112,
      "실패": 10113,
      "##지않": 10114,
      "이사": 10115,
      "제출": 10116,
      "예술": 10117,
      "##산을": 10118,
      "##하는게": 10119,
      "고통": 10120,
      "등장": 10121,
      "##어라": 10122,
      "달러": 10123,
      "마찬가지": 10124,
      "##경기": 10125,
      "종합": 10126,
      "제한": 10127,
      "##연합": 10128,
      "기획": 10129,
      "약속": 10130,
      "나오는": 10131,
      "니들이": 10132,
      "일어나": 10133,
      "이곳": 10134,
      "갑자기": 10135,
      "##건데": 10136,
      "인권": 10137,
      "##조차": 10138,
      "일으": 10139,
      "속에": 10140,
      "빠져": 10141,
      "응원": 10142,
      "##명은": 10143,
      "##수도": 10144,
      "##든지": 10145,
      "##되면서": 10146,
      "##듯이": 10147,
      "우승": 10148,
      "##이크": 10149,
      "수는": 10150,
      "마을": 10151,
      "11월": 10152,
      "전기": 10153,
      "그러면": 10154,
      "것처럼": 10155,
      "능력": 10156,
      "전환": 10157,
      "신뢰": 10158,
      "바뀌": 10159,
      "입국": 10160,
      "##0년대": 10161,
      "구매": 10162,
      "##한데": 10163,
      "##정의": 10164,
      "내부": 10165,
      "분양": 10166,
      "출연": 10167,
      "외국인": 10168,
      "덧붙": 10169,
      "남아": 10170,
      "보였다": 10171,
      "개념": 10172,
      "작업": 10173,
      "것이라고": 10174,
      "관심을": 10175,
      "점을": 10176,
      "##던데": 10177,
      "##기간": 10178,
      "전시": 10179,
      "왔다": 10180,
      "언급": 10181,
      "##품을": 10182,
      "중인": 10183,
      "##들고": 10184,
      "나쁜": 10185,
      "통과": 10186,
      "이들": 10187,
      "##규모": 10188,
      "##으로부터": 10189,
      "전라도": 10190,
      "이젠": 10191,
      "차례": 10192,
      "근로": 10193,
      "##어가": 10194,
      "그럴": 10195,
      "울산": 10196,
      "교수는": 10197,
      "무시": 10198,
      "소설": 10199,
      "##량을": 10200,
      "했는데": 10201,
      "중소기업": 10202,
      "##성의": 10203,
      "##건을": 10204,
      "##뉴스": 10205,
      "하며": 10206,
      "##지게": 10207,
      "자주": 10208,
      "아들": 10209,
      "##스러운": 10210,
      "음식": 10211,
      "촛불": 10212,
      "개돼지": 10213,
      "그것은": 10214,
      "##or": 10215,
      "##문이": 10216,
      "##도에": 10217,
      "이야기를": 10218,
      "안에": 10219,
      "건물": 10220,
      "##단이": 10221,
      "대중": 10222,
      "이명박": 10223,
      "당장": 10224,
      "##소득": 10225,
      "임명": 10226,
      "서민": 10227,
      "체험": 10228,
      "마치": 10229,
      "##시키고": 10230,
      "##이션": 10231,
      "훈련": 10232,
      "철저": 10233,
      "인식": 10234,
      "일자리": 10235,
      "취업": 10236,
      "대화": 10237,
      "##투자": 10238,
      "근무": 10239,
      "도와": 10240,
      "궁금": 10241,
      "주인": 10242,
      "담당": 10243,
      "경북": 10244,
      "##대통령": 10245,
      "필요하다": 10246,
      "시험": 10247,
      "회의": 10248,
      "##관을": 10249,
      "보이는": 10250,
      "전해": 10251,
      "##계획": 10252,
      "##방송": 10253,
      "내놓": 10254,
      "타고": 10255,
      "##구의": 10256,
      "##금융": 10257,
      "##만의": 10258,
      "##대학": 10259,
      "거쳐": 10260,
      "갈등": 10261,
      "자본": 10262,
      "한국의": 10263,
      "인물": 10264,
      "##제는": 10265,
      "개정": 10266,
      "도로": 10267,
      "살펴": 10268,
      "홍보": 10269,
      "한반": 10270,
      "##건가": 10271,
      "대전": 10272,
      "위해서는": 10273,
      "5년": 10274,
      "있었던": 10275,
      "2차": 10276,
      "포기": 10277,
      "이재": 10278,
      "기념": 10279,
      "##한다면": 10280,
      "##러스": 10281,
      "기초": 10282,
      "##었습니다": 10283,
      "가능한": 10284,
      "##에만": 10285,
      "위반": 10286,
      "조용": 10287,
      "매일": 10288,
      "해석": 10289,
      "벌어": 10290,
      "##어를": 10291,
      "##수한": 10292,
      "##조선": 10293,
      "##와서": 10294,
      "줄어": 10295,
      "북한이": 10296,
      "그랬": 10297,
      "##군요": 10298,
      "적이": 10299,
      "올려": 10300,
      "##20": 10301,
      "필요가": 10302,
      "##봐야": 10303,
      "회복": 10304,
      "##스럽게": 10305,
      "자녀": 10306,
      "##만에": 10307,
      "상황에서": 10308,
      "##이버": 10309,
      "여기서": 10310,
      "인상": 10311,
      "바꾸": 10312,
      "내용을": 10313,
      "##일에": 10314,
      "##금이": 10315,
      "했던": 10316,
      "##이라면": 10317,
      "##였던": 10318,
      "할머니": 10319,
      "##겠냐": 10320,
      "아프": 10321,
      "말하는": 10322,
      "TV": 10323,
      "##구는": 10324,
      "단계": 10325,
      "프랑스": 10326,
      "없다고": 10327,
      "##활동": 10328,
      "근거": 10329,
      "민주주의": 10330,
      "##가의": 10331,
      "당선": 10332,
      "만약": 10333,
      "연속": 10334,
      "북한의": 10335,
      "##하려는": 10336,
      "것입니다": 10337,
      "##회사": 10338,
      "미세": 10339,
      "##끼리": 10340,
      "노무": 10341,
      "아님": 10342,
      "##경찰": 10343,
      "##량이": 10344,
      "거부": 10345,
      "##BC": 10346,
      "비난": 10347,
      "##보자": 10348,
      "눈에": 10349,
      "나이": 10350,
      "##때문에": 10351,
      "##정치": 10352,
      "이하": 10353,
      "##기와": 10354,
      "시간을": 10355,
      "##명으로": 10356,
      "##통신": 10357,
      "##체를": 10358,
      "##나고": 10359,
      "않으면": 10360,
      "##비가": 10361,
      "목소": 10362,
      "##는게": 10363,
      "인근": 10364,
      "안되": 10365,
      "재미": 10366,
      "보이": 10367,
      "##에게는": 10368,
      "##en": 10369,
      "자체가": 10370,
      "##안에": 10371,
      "##이상": 10372,
      "##간의": 10373,
      "##질을": 10374,
      "작년": 10375,
      "맞아": 10376,
      "##성화": 10377,
      "정치적": 10378,
      "이란": 10379,
      "이유로": 10380,
      "사퇴": 10381,
      "앞에서": 10382,
      "##이익": 10383,
      "가르": 10384,
      "기반": 10385,
      "나왔": 10386,
      "##받은": 10387,
      "마음을": 10388,
      "나왔다": 10389,
      "향후": 10390,
      "이제는": 10391,
      "자랑": 10392,
      "혐의로": 10393,
      "##인과": 10394,
      "사람의": 10395,
      "보기": 10396,
      "##해요": 10397,
      "한마": 10398,
      "##50": 10399,
      "늘어": 10400,
      "그러니까": 10401,
      "##스코": 10402,
      "원칙": 10403,
      "##당한": 10404,
      "##단은": 10405,
      "씨는": 10406,
      "본다": 10407,
      "##시켰": 10408,
      "##주세요": 10409,
      "것에": 10410,
      "스트": 10411,
      "##다운": 10412,
      "##었을": 10413,
      "##반기": 10414,
      "혜택": 10415,
      "여름": 10416,
      "##무를": 10417,
      "##수로": 10418,
      "금지": 10419,
      "##학과": 10420,
      "##리한": 10421,
      "평생": 10422,
      "나머": 10423,
      "솔직": 10424,
      "많아": 10425,
      "제조": 10426,
      "주장했다": 10427,
      "덧붙였다": 10428,
      "지정": 10429,
      "살고": 10430,
      "둘러": 10431,
      "위에": 10432,
      "통한": 10433,
      "2014년": 10434,
      "##계가": 10435,
      "손을": 10436,
      "등록": 10437,
      "같은데": 10438,
      "자격": 10439,
      "가정": 10440,
      "##관은": 10441,
      "확정": 10442,
      "##국에": 10443,
      "자료": 10444,
      "전자": 10445,
      "온라인": 10446,
      "80": 10447,
      "시청": 10448,
      "##많은": 10449,
      "##30": 10450,
      "피고": 10451,
      "아내": 10452,
      "##바로": 10453,
      "현장": 10454,
      "##했으며": 10455,
      "2015년": 10456,
      "드라마": 10457,
      "강원": 10458,
      "괜찮": 10459,
      "달창": 10460,
      "##제에": 10461,
      "소유": 10462,
      "항공": 10463,
      "앞두고": 10464,
      "수행": 10465,
      "이번에": 10466,
      "그거": 10467,
      "도움이": 10468,
      "나올": 10469,
      "쓰는": 10470,
      "당연히": 10471,
      "뛰어": 10472,
      "##고를": 10473,
      "##세대": 10474,
      "인터뷰": 10475,
      "대법": 10476,
      "특징": 10477,
      "사법": 10478,
      "앞에": 10479,
      "##인으로": 10480,
      "경우가": 10481,
      "부끄": 10482,
      "헌법": 10483,
      "##소가": 10484,
      "중이다": 10485,
      "##받는": 10486,
      "이유가": 10487,
      "나를": 10488,
      "가치": 10489,
      "여기에": 10490,
      "##거든요": 10491,
      "##재를": 10492,
      "이루어": 10493,
      "누군": 10494,
      "거야": 10495,
      "것이라는": 10496,
      "쓰고": 10497,
      "의한": 10498,
      "그룹": 10499,
      "추천": 10500,
      "중단": 10501,
      "아닐": 10502,
      "##트남": 10503,
      "규정": 10504,
      "완전히": 10505,
      "##아라": 10506,
      "이상의": 10507,
      "복지": 10508,
      "##려서": 10509,
      "운전": 10510,
      "듣고": 10511,
      "지들": 10512,
      "##건설": 10513,
      "##는가": 10514,
      "이유는": 10515,
      "2012년": 10516,
      "##놈들": 10517,
      "있어야": 10518,
      "집에": 10519,
      "##at": 10520,
      "##분에": 10521,
      "##씨의": 10522,
      "보통": 10523,
      "##려라": 10524,
      "그들은": 10525,
      "나경": 10526,
      "시대": 10527,
      "사실상": 10528,
      "3일": 10529,
      "상대로": 10530,
      "##분기": 10531,
      "그건": 10532,
      "수상": 10533,
      "소통": 10534,
      "코스": 10535,
      "알았": 10536,
      "유일": 10537,
      "##당을": 10538,
      "스마트폰": 10539,
      "##발전": 10540,
      "##별로": 10541,
      "감염": 10542,
      "입장을": 10543,
      "것과": 10544,
      "##주를": 10545,
      "역대": 10546,
      "##신을": 10547,
      "생각하는": 10548,
      "재산": 10549,
      "##어버": 10550,
      "일은": 10551,
      "노무현": 10552,
      "##es": 10553,
      "측은": 10554,
      "어디서": 10555,
      "나누": 10556,
      "국무": 10557,
      "##건지": 10558,
      "다가": 10559,
      "2013년": 10560,
      "##운드": 10561,
      "##트는": 10562,
      "##것들": 10563,
      "##려야": 10564,
      "주도": 10565,
      "##복지": 10566,
      "마무": 10567,
      "관련해": 10568,
      "##져야": 10569,
      "##번째": 10570,
      "##워서": 10571,
      "저렇게": 10572,
      "지적했다": 10573,
      "##지면서": 10574,
      "인제": 10575,
      "화장": 10576,
      "##과학": 10577,
      "##디오": 10578,
      "의심": 10579,
      "충분히": 10580,
      "스포츠": 10581,
      "감독은": 10582,
      "재정": 10583,
      "##하겠다는": 10584,
      "##주가": 10585,
      "방식": 10586,
      "##하려": 10587,
      "##에서의": 10588,
      "##상으로": 10589,
      "말도": 10590,
      "전남": 10591,
      "하자": 10592,
      "유통": 10593,
      "일본이": 10594,
      "##시오": 10595,
      "1000": 10596,
      "##지와": 10597,
      "##말로": 10598,
      "서울시": 10599,
      "주로": 10600,
      "##님의": 10601,
      "##진을": 10602,
      "현지": 10603,
      "##만한": 10604,
      "##면을": 10605,
      "##만으로": 10606,
      "없애": 10607,
      "문재인이": 10608,
      "베트남": 10609,
      "명의": 10610,
      "평소": 10611,
      "자세": 10612,
      "##억원을": 10613,
      "사업을": 10614,
      "말한다": 10615,
      "프리": 10616,
      "##증을": 10617,
      "가만": 10618,
      "기부": 10619,
      "투입": 10620,
      "##al": 10621,
      "있어요": 10622,
      "##증권": 10623,
      "사상": 10624,
      "연기": 10625,
      "##치지": 10626,
      "##었지만": 10627,
      "신문": 10628,
      "원하는": 10629,
      "최고의": 10630,
      "원내대표": 10631,
      "##적이다": 10632,
      "##레스": 10633,
      "##학년": 10634,
      "물어": 10635,
      "특정": 10636,
      "결과를": 10637,
      "바탕": 10638,
      "##라서": 10639,
      "생각한다": 10640,
      "검찰은": 10641,
      "이기": 10642,
      "##론을": 10643,
      "##ar": 10644,
      "무서": 10645,
      "##왜구": 10646,
      "비롯해": 10647,
      "##이로": 10648,
      "밝히": 10649,
      "경찰은": 10650,
      "##부모": 10651,
      "1일": 10652,
      "##하려고": 10653,
      "중국의": 10654,
      "만족": 10655,
      "겨울": 10656,
      "지식": 10657,
      "수술": 10658,
      "##간에": 10659,
      "하나의": 10660,
      "지배": 10661,
      "힘든": 10662,
      "##거냐": 10663,
      "과연": 10664,
      "병원": 10665,
      "제도": 10666,
      "##he": 10667,
      "접근": 10668,
      "##질이": 10669,
      "손해": 10670,
      "##계의": 10671,
      "규제": 10672,
      "불구하고": 10673,
      "##률이": 10674,
      "윤석": 10675,
      "##리며": 10676,
      "일본의": 10677,
      "##시를": 10678,
      "느껴": 10679,
      "뭔가": 10680,
      "저녁": 10681,
      "##에요": 10682,
      "희생": 10683,
      "혹은": 10684,
      "촬영": 10685,
      "있으니": 10686,
      "안되는": 10687,
      "##진이": 10688,
      "청소년": 10689,
      "새누리당": 10690,
      "불편": 10691,
      "##일까": 10692,
      "매년": 10693,
      "##리와": 10694,
      "살인": 10695,
      "위협": 10696,
      "있다면": 10697,
      "야당": 10698,
      "중에": 10699,
      "동물": 10700,
      "그녀는": 10701,
      "##위의": 10702,
      "시도": 10703,
      "자신을": 10704,
      "회장": 10705,
      "말은": 10706,
      "##점에서": 10707,
      "차별": 10708,
      "강한": 10709,
      "서울대": 10710,
      "상황이": 10711,
      "##역을": 10712,
      "##시대": 10713,
      "##화된": 10714,
      "졸업": 10715,
      "영어": 10716,
      "##길을": 10717,
      "##았던": 10718,
      "##경을": 10719,
      "달려": 10720,
      "처음으로": 10721,
      "##것이다": 10722,
      "자살": 10723,
      "등은": 10724,
      "##가족": 10725,
      "##여서": 10726,
      "진실": 10727,
      "미리": 10728,
      "네이버": 10729,
      "관심이": 10730,
      "그렇지": 10731,
      "미세먼": 10732,
      "정리": 10733,
      "##점으로": 10734,
      "##구조": 10735,
      "##임금": 10736,
      "##율을": 10737,
      "올림픽": 10738,
      "여러분": 10739,
      "나무": 10740,
      "선언": 10741,
      "만들고": 10742,
      "##하라고": 10743,
      "##단의": 10744,
      "대답": 10745,
      "호텔": 10746,
      "하게": 10747,
      "가득": 10748,
      "정보를": 10749,
      "나의": 10750,
      "점점": 10751,
      "채용": 10752,
      "못할": 10753,
      "##것이": 10754,
      "중국인": 10755,
      "사이에": 10756,
      "인한": 10757,
      "본인": 10758,
      "자꾸": 10759,
      "공감": 10760,
      "5일": 10761,
      "쏟아": 10762,
      "##수사": 10763,
      "자유한국": 10764,
      "##국은": 10765,
      "상황을": 10766,
      "자리를": 10767,
      "##케팅": 10768,
      "##항공": 10769,
      "의견을": 10770,
      "생긴": 10771,
      "전반": 10772,
      "소송": 10773,
      "했지만": 10774,
      "건축": 10775,
      "출발": 10776,
      "##해야지": 10777,
      "이름을": 10778,
      "미사일": 10779,
      "일제": 10780,
      "##율은": 10781,
      "##이드": 10782,
      "##00여": 10783,
      "##지말고": 10784,
      "##가락": 10785,
      "그것이": 10786,
      "##먹는": 10787,
      "아닙": 10788,
      "제안": 10789,
      "2010년": 10790,
      "나중에": 10791,
      "돌아가": 10792,
      "부탁": 10793,
      "##신이": 10794,
      "197": 10795,
      "위안": 10796,
      "그들의": 10797,
      "##선이": 10798,
      "거지": 10799,
      "##렀다": 10800,
      "남성": 10801,
      "사전": 10802,
      "신규": 10803,
      "임대": 10804,
      "##정으로": 10805,
      "바다": 10806,
      "##병원": 10807,
      "몰아": 10808,
      "벌써": 10809,
      "있는지": 10810,
      "2011년": 10811,
      "보장": 10812,
      "##리카": 10813,
      "문학": 10814,
      "일상": 10815,
      "비중": 10816,
      "좋겠다": 10817,
      "형성": 10818,
      "물러": 10819,
      "겁니다": 10820,
      "한마디": 10821,
      "문죄": 10822,
      "선진": 10823,
      "제3": 10824,
      "##께서": 10825,
      "조건": 10826,
      "기록했다": 10827,
      "목숨": 10828,
      "소재": 10829,
      "강제": 10830,
      "돌려": 10831,
      "굉장": 10832,
      "그를": 10833,
      "나선": 10834,
      "인간이": 10835,
      "상관": 10836,
      "수석": 10837,
      "회장은": 10838,
      "##시킬": 10839,
      "미국이": 10840,
      "있나": 10841,
      "##생각": 10842,
      "10일": 10843,
      "돈이": 10844,
      "마음이": 10845,
      "##계에": 10846,
      "단지": 10847,
      "##권이": 10848,
      "공유": 10849,
      "책임을": 10850,
      "##음이": 10851,
      "##함으로써": 10852,
      "시켜": 10853,
      "##전이": 10854,
      "법률": 10855,
      "##받아": 10856,
      "##사에서": 10857,
      "공수": 10858,
      "시각": 10859,
      "모르고": 10860,
      "다들": 10861,
      "직장": 10862,
      "주문": 10863,
      "몸을": 10864,
      "##서비스": 10865,
      "니네": 10866,
      "##평가": 10867,
      "확산": 10868,
      "체결": 10869,
      "##노동": 10870,
      "##ㅠㅠ": 10871,
      "마라": 10872,
      "##들이다": 10873,
      "열어": 10874,
      "눈을": 10875,
      "동일": 10876,
      "들여": 10877,
      "그저": 10878,
      "박정": 10879,
      "##형을": 10880,
      "맞춰": 10881,
      "기소": 10882,
      "새로": 10883,
      "##성도": 10884,
      "낮은": 10885,
      "것이었다": 10886,
      "오랜": 10887,
      "선물": 10888,
      "만한": 10889,
      "일본은": 10890,
      "그것을": 10891,
      "##제품": 10892,
      "경우에는": 10893,
      "가능하다": 10894,
      "황교안": 10895,
      "노인": 10896,
      "##수수": 10897,
      "##이의": 10898,
      "향해": 10899,
      "길을": 10900,
      "활동을": 10901,
      "##라리": 10902,
      "지랄": 10903,
      "비롯한": 10904,
      "따로": 10905,
      "##지기": 10906,
      "기회를": 10907,
      "마무리": 10908,
      "##본부": 10909,
      "##시의": 10910,
      "##나무": 10911,
      "한국은": 10912,
      "##순실": 10913,
      "##차가": 10914,
      "이다": 10915,
      "임금": 10916,
      "끝까지": 10917,
      "국토": 10918,
      "2008년": 10919,
      "인간의": 10920,
      "##구에": 10921,
      "들었다": 10922,
      "수용": 10923,
      "##항을": 10924,
      "##텐츠": 10925,
      "##카드": 10926,
      "15일": 10927,
      "##력은": 10928,
      "20일": 10929,
      "대북": 10930,
      "바란다": 10931,
      "1차": 10932,
[...]
